{
  "version": "1.0",
  "truncation": null,
  "padding": null,
  "added_tokens": [
    {
      "id": 0,
      "content": "<PAD>",
      "single_word": false,
      "lstrip": false,
      "rstrip": false,
      "normalized": false,
      "special": true
    },
    {
      "id": 1,
      "content": "<BOS>",
      "single_word": false,
      "lstrip": false,
      "rstrip": false,
      "normalized": false,
      "special": true
    },
    {
      "id": 2,
      "content": "<EOS>",
      "single_word": false,
      "lstrip": false,
      "rstrip": false,
      "normalized": false,
      "special": true
    }
  ],
  "normalizer": {
    "type": "Sequence",
    "normalizers": [
      {
        "type": "NFKC"
      }
    ]
  },
  "pre_tokenizer": {
    "type": "ByteLevel",
    "add_prefix_space": true,
    "trim_offsets": true,
    "use_regex": true
  },
  "post_processor": null,
  "decoder": {
    "type": "ByteLevel",
    "add_prefix_space": true,
    "trim_offsets": true,
    "use_regex": true
  },
  "model": {
    "type": "BPE",
    "dropout": null,
    "unk_token": "<UNK>",
    "continuing_subword_prefix": null,
    "end_of_word_suffix": null,
    "fuse_unk": false,
    "byte_fallback": false,
    "ignore_merges": false,
    "vocab": {
      "<PAD>": 0,
      "<BOS>": 1,
      "<EOS>": 2,
      "!": 3,
      "\"": 4,
      "#": 5,
      "$": 6,
      "%": 7,
      "&": 8,
      "'": 9,
      "(": 10,
      ")": 11,
      "*": 12,
      "+": 13,
      ",": 14,
      "-": 15,
      ".": 16,
      "/": 17,
      "0": 18,
      "1": 19,
      "2": 20,
      "3": 21,
      "4": 22,
      "5": 23,
      "6": 24,
      "7": 25,
      "8": 26,
      "9": 27,
      ":": 28,
      ";": 29,
      "=": 30,
      "?": 31,
      "@": 32,
      "[": 33,
      "\\": 34,
      "]": 35,
      "^": 36,
      "_": 37,
      "`": 38,
      "a": 39,
      "b": 40,
      "c": 41,
      "d": 42,
      "e": 43,
      "f": 44,
      "g": 45,
      "h": 46,
      "i": 47,
      "j": 48,
      "k": 49,
      "l": 50,
      "m": 51,
      "n": 52,
      "o": 53,
      "p": 54,
      "q": 55,
      "r": 56,
      "s": 57,
      "t": 58,
      "u": 59,
      "v": 60,
      "w": 61,
      "x": 62,
      "y": 63,
      "z": 64,
      "~": 65,
      "Ċ": 66,
      "Ġ": 67,
      "Ġt": 68,
      "Ġi": 69,
      "Ġa": 70,
      "Ġth": 71,
      "Ġs": 72,
      "Ġw": 73,
      "ĠĊ": 74,
      "in": 75,
      "ou": 76,
      "Ġb": 77,
      "Ġm": 78,
      "er": 79,
      "Ġh": 80,
      "on": 81,
      "Ġl": 82,
      "re": 83,
      "Ġthe": 84,
      "Ġd": 85,
      "Ġy": 86,
      "Ġc": 87,
      "at": 88,
      "ing": 89,
      "Ġf": 90,
      "Ġg": 91,
      "Ġto": 92,
      "ll": 93,
      "or": 94,
      "Ġn": 95,
      "Ġyou": 96,
      "an": 97,
      "en": 98,
      "Ġp": 99,
      "st": 100,
      "it": 101,
      "Ġo": 102,
      "ed": 103,
      "Ġan": 104,
      "Ġit": 105,
      "es": 106,
      "ay": 107,
      "ow": 108,
      "et": 109,
      "ot": 110,
      "om": 111,
      "ve": 112,
      "Ġwh": 113,
      "ea": 114,
      "Ġha": 115,
      "is": 116,
      "oo": 117,
      "Ġu": 118,
      "Ġand": 119,
      "..": 120,
      "Ġbe": 121,
      "Ġin": 122,
      "ke": 123,
      "Ġthat": 124,
      "Ġon": 125,
      "Ġe": 126,
      "'s": 127,
      "as": 128,
      "'t": 129,
      "ut": 130,
      "Ġof": 131,
      "am": 132,
      "ck": 133,
      "le": 134,
      "Ġmy": 135,
      "Ġli": 136,
      "Ġis": 137,
      "Ġme": 138,
      "ch": 139,
      "gh": 140,
      "Ġj": 141,
      "ar": 142,
      "Ġst": 143,
      "Ġsh": 144,
      "id": 145,
      "Ġlo": 146,
      "se": 147,
      "Ġfor": 148,
      "Ġre": 149,
      "ld": 150,
      "Ġr": 151,
      "out": 152,
      "ver": 153,
      "Ġwe": 154,
      "Ġk": 155,
      "all": 156,
      "al": 157,
      "'m": 158,
      "Ġso": 159,
      "Ġbut": 160,
      "ere": 161,
      "Ġdo": 162,
      "ly": 163,
      "ust": 164,
      "Ġwas": 165,
      "Ġlike": 166,
      "ic": 167,
      "ght": 168,
      "!!": 169,
      "ee": 170,
      "ad": 171,
      "ill": 172,
      "im": 173,
      "Ġne": 174,
      "Ġjust": 175,
      "Ġhave": 176,
      "Ġnot": 177,
      "ome": 178,
      "Ġlol": 179,
      "Ġgo": 180,
      "op": 181,
      "ith": 182,
      "Ġhe": 183,
      "Ġthis": 184,
      "ir": 185,
      "Ġget": 186,
      "ould": 187,
      "Ġup": 188,
      "one": 189,
      "Ġcan": 190,
      "ight": 191,
      "ent": 192,
      "Ġtr": 193,
      "th": 194,
      "Ġwith": 195,
      "ion": 196,
      "ally": 197,
      "Ġat": 198,
      "Ġwhat": 199,
      "ct": 200,
      "Ġas": 201,
      "Ġare": 202,
      "Ġthey": 203,
      "Ġdon": 204,
      "Ġkn": 205,
      "Ġch": 206,
      "ro": 207,
      "ce": 208,
      "ur": 209,
      "Ġfr": 210,
      "ood": 211,
      "Ġno": 212,
      "ear": 213,
      "Ġyour": 214,
      "Ġab": 215,
      "Ġwor": 216,
      "...": 217,
      "Ġknow": 218,
      "ter": 219,
      "Ġif": 220,
      "pp": 221,
      "Ġal": 222,
      "Ġsu": 223,
      "Ġout": 224,
      "Ġmo": 225,
      "Ġall": 226,
      "Ġpl": 227,
      "ame": 228,
      "Ġgot": 229,
      "ink": 230,
      "ant": 231,
      "Ġ#": 232,
      "un": 233,
      "ma": 234,
      "Ġabout": 235,
      "il": 236,
      "Ġhow": 237,
      "Ġgood": 238,
      "end": 239,
      "ack": 240,
      "Ġor": 241,
      "Ġsome": 242,
      "Ġdid": 243,
      "Ġtoo": 244,
      "Ġma": 245,
      "ep": 246,
      "ate": 247,
      "ig": 248,
      "Ġtim": 249,
      "Ġever": 250,
      "Ġthink": 251,
      "Ġwhen": 252,
      "us": 253,
      "uck": 254,
      "um": 255,
      "na": 256,
      "Ġone": 257,
      "Ġthere": 258,
      "amp": 259,
      "Ġde": 260,
      "ie": 261,
      "ess": 262,
      "ers": 263,
      "ab": 264,
      "Ġ2": 265,
      "ha": 266,
      "king": 267,
      "au": 268,
      "day": 269,
      "Ġsee": 270,
      "art": 271,
      "Ġday": 272,
      "ge": 273,
      "oun": 274,
      "ain": 275,
      "and": 276,
      "Ġtime": 277,
      "Ġ\"": 278,
      "Ġwould": 279,
      "Ġthan": 280,
      "Ġcom": 281,
      "Ġany": 282,
      "Ġv": 283,
      "Ġex": 284,
      "ri": 285,
      "Ġneed": 286,
      "ast": 287,
      "Ġ1": 288,
      "'re": 289,
      "ven": 290,
      "'ll": 291,
      "??": 292,
      "Ġ&": 293,
      "ind": 294,
      "ss": 295,
      "ks": 296,
      "ough": 297,
      "Ġcon": 298,
      "Ġshe": 299,
      "Ġwill": 300,
      "ick": 301,
      "Ġwant": 302,
      "Ġfrom": 303,
      "ff": 304,
      "Ġsp": 305,
      "Ġman": 306,
      "Ġnow": 307,
      "Ġshit": 308,
      "ra": 309,
      "Ġwho": 310,
      "Ġevery": 311,
      "our": 312,
      "Ġse": 313,
      "are": 314,
      "Ġyea": 315,
      "Ġun": 316,
      "Ġsa": 317,
      "atch": 318,
      "Ġwhy": 319,
      "ry": 320,
      "Ġim": 321,
      "ud": 322,
      "ue": 323,
      "Ġte": 324,
      "Ġco": 325,
      "Ġstill": 326,
      "ause": 327,
      "Ġthem": 328,
      "Ġfuck": 329,
      "Ġmore": 330,
      "Ġpo": 331,
      "Ġcl": 332,
      "Ġlove": 333,
      "Ġwork": 334,
      "Ġthen": 335,
      "Ġoff": 336,
      "Ġgoing": 337,
      "ine": 338,
      "Ġback": 339,
      "ook": 340,
      "iss": 341,
      "'ve": 342,
      "Ġag": 343,
      "Ġher": 344,
      "Ġreally": 345,
      "hing": 346,
      "Ġtw": 347,
      "eel": 348,
      "Ġbl": 349,
      "Ġam": 350,
      "Ġpe": 351,
      "Ġpro": 352,
      "Ġbeen": 353,
      "ong": 354,
      "ound": 355,
      "ore": 356,
      "way": 357,
      "Ġlma": 358,
      "hh": 359,
      "Ġmu": 360,
      "Ġsay": 361,
      "Ġbet": 362,
      "Ġplay": 363,
      "ake": 364,
      "Ġhad": 365,
      "ite": 366,
      "Ġeven": 367,
      "ool": 368,
      "Ġus": 369,
      "ting": 370,
      "pl": 371,
      "Ġfeel": 372,
      "pe": 373,
      "ation": 374,
      "Ġyeah": 375,
      "leep": 376,
      "Ġright": 377,
      "Ġtry": 378,
      "Ġmuch": 379,
      "ning": 380,
      "ul": 381,
      "ous": 382,
      "Ġok": 383,
      "Ġpeop": 384,
      "Ġ:": 385,
      "Ġbr": 386,
      "Ġsc": 387,
      "Ġway": 388,
      "own": 389,
      "Ġpeople": 390,
      "Ġ3": 391,
      "Ġfa": 392,
      "lf": 393,
      "fe": 394,
      "her": 395,
      "xt": 396,
      "Ġmiss": 397,
      "Ġwell": 398,
      "Ġwatch": 399,
      "Ġshould": 400,
      "ope": 401,
      "Ġtho": 402,
      "ide": 403,
      "Ġover": 404,
      "ving": 405,
      "Ġgu": 406,
      "Ġhapp": 407,
      "Ġwee": 408,
      "der": 409,
      "ist": 410,
      "Ġyes": 411,
      "Ġhaha": 412,
      "ber": 413,
      "Ġq": 414,
      "Ġbec": 415,
      "ies": 416,
      "Ġsleep": 417,
      "omet": 418,
      "ish": 419,
      "Ġwa": 420,
      "Ġby": 421,
      "Ġlet": 422,
      "Ġpre": 423,
      "ady": 424,
      "Ġlmao": 425,
      "Ġthing": 426,
      "ive": 427,
      "ol": 428,
      "Ġar": 429,
      "Ġhis": 430,
      "Ġhere": 431,
      "ice": 432,
      "Ġmake": 433,
      "em": 434,
      "od": 435,
      "Ġsomet": 436,
      "ead": 437,
      "oooo": 438,
      "Ġonly": 439,
      "Ġact": 440,
      "Ġsm": 441,
      "Ġcould": 442,
      "eas": 443,
      "os": 444,
      "Ġdoes": 445,
      "Ġid": 446,
      "Ġoh": 447,
      "ass": 448,
      "Ġwere": 449,
      "Ġgon": 450,
      "Ġyear": 451,
      "Ġnever": 452,
      "Ġgre": 453,
      "!!!": 454,
      "Ġbecause": 455,
      "Ġhas": 456,
      "Ġtal": 457,
      "Ġass": 458,
      "up": 459,
      "Ġstart": 460,
      "ble": 461,
      "Ġhim": 462,
      "Ġna": 463,
      "....": 464,
      "Ġdidn": 465,
      "Ġnight": 466,
      "ard": 467,
      "Ġro": 468,
      "ually": 469,
      "ort": 470,
      "Ġdown": 471,
      "Ġint": 472,
      "Ġsame": 473,
      "Ġpr": 474,
      "Ġgonna": 475,
      "Ġcome": 476,
      "ans": 477,
      "Ġlit": 478,
      "Ġwhi": 479,
      "Ġtheir": 480,
      "Ġwait": 481,
      "Ġaf": 482,
      "Ġlast": 483,
      "Ġtoday": 484,
      "Ġweek": 485,
      "ip": 486,
      "oy": 487,
      "Ġke": 488,
      "Ġaw": 489,
      "Ġgir": 490,
      "Ġsure": 491,
      "pt": 492,
      "Ġbetter": 493,
      "Ġlot": 494,
      "Ġdr": 495,
      "ity": 496,
      "Ġbro": 497,
      "ty": 498,
      "Ġtea": 499,
      "Ġwhere": 500,
      "Ġshow": 501,
      "Ġnew": 502,
      "thing": 503,
      "Ġwon": 504,
      "Ġgame": 505,
      "Ġen": 506,
      "Ġoth": 507,
      "Ġlook": 508,
      "ree": 509,
      "Ġgirl": 510,
      "Ġfe": 511,
      "self": 512,
      "'d": 513,
      "Ġthough": 514,
      "Ġmor": 515,
      "Ġdam": 516,
      "Ġsaid": 517,
      "Ġsomething": 518,
      "be": 519,
      "Ġmad": 520,
      "Ġlea": 521,
      "ways": 522,
      "ull": 523,
      "Ġhome": 524,
      "Ġhope": 525,
      "Ġjo": 526,
      "Ġagain": 527,
      "ak": 528,
      "if": 529,
      "ure": 530,
      "Ġph": 531,
      "Ġad": 532,
      "Ġtell": 533,
      "ta": 534,
      "Ġbeing": 535,
      "ms": 536,
      "Ġtake": 537,
      "ought": 538,
      "Ġgr": 539,
      "itch": 540,
      "Ġra": 541,
      "Ġother": 542,
      "Ġ?": 543,
      "Ġfri": 544,
      "Ġalways": 545,
      "Ġnext": 546,
      "int": 547,
      "Ġmorning": 548,
      "Ġbest": 549,
      "sh": 550,
      "Ġ.": 551,
      "Ġfriend": 552,
      "Ġsch": 553,
      "aa": 554,
      "eet": 555,
      "ire": 556,
      "ub": 557,
      "Ġwin": 558,
      "Ġhear": 559,
      "Ġpart": 560,
      "Ġsomeone": 561,
      "ious": 562,
      "lp": 563,
      "ment": 564,
      "Ġ5": 565,
      "Ġbad": 566,
      "ump": 567,
      "Ġactually": 568,
      "Ġ4": 569,
      "Ġcall": 570,
      "Ġits": 571,
      "Ġstop": 572,
      "Ġdamn": 573,
      "00": 574,
      "ag": 575,
      "Ġ(": 576,
      "!!!!": 577,
      "Ġle": 578,
      "get": 579,
      "yy": 580,
      "Ġmay": 581,
      "anna": 582,
      "ude": 583,
      "Ġgreat": 584,
      "per": 585,
      "Ġrem": 586,
      "Ġapp": 587,
      "Ġwr": 588,
      "Ġhi": 589,
      "Ġfin": 590,
      "so": 591,
      "Ġsw": 592,
      "Ġser": 593,
      "Ġho": 594,
      "Ġthanks": 595,
      "ci": 596,
      "Ġwanna": 597,
      "Ġem": 598,
      "Ġmean": 599,
      "Ġreal": 600,
      "Ġche": 601,
      "Ġbu": 602,
      "Ġfir": 603,
      "Ġbig": 604,
      "Ġgetting": 605,
      "mm": 606,
      "row": 607,
      "Ġput": 608,
      "Ġdays": 609,
      "nt": 610,
      "Ġfun": 611,
      "Ġhelp": 612,
      "Ġhappen": 613,
      "age": 614,
      "iz": 615,
      "rd": 616,
      "ready": 617,
      "Ġfo": 618,
      "llow": 619,
      "oth": 620,
      "Ġlife": 621,
      "ions": 622,
      "Ġfirst": 623,
      "fore": 624,
      "Ġya": 625,
      "eal": 626,
      "igg": 627,
      "con": 628,
      "Ġver": 629,
      "Ġmight": 630,
      "Ġalready": 631,
      "Ġdef": 632,
      "Ġokay": 633,
      "Ġafter": 634,
      "Ġac": 635,
      "Ġdis": 636,
      "Ġdoing": 637,
      "Ġqu": 638,
      "ia": 639,
      "Ġain": 640,
      "Ġdude": 641,
      "ence": 642,
      "Ġom": 643,
      "ary": 644,
      "ap": 645,
      "mor": 646,
      "ves": 647,
      "li": 648,
      "wh": 649,
      "Ġour": 650,
      "ang": 651,
      "Ġbefore": 652,
      "Ġtrying": 653,
      "Ġsl": 654,
      "Ġteam": 655,
      "Ġfl": 656,
      "Ġalso": 657,
      "eason": 658,
      "ys": 659,
      "ouse": 660,
      "Ġthank": 661,
      "Ġfucking": 662,
      "Ġwhich": 663,
      "Ġkeep": 664,
      "Ġschool": 665,
      "Ġlong": 666,
      "able": 667,
      "Ġmany": 668,
      "wn": 669,
      "Ġthought": 670,
      "Ġseason": 671,
      "Ġ-": 672,
      "Ġmom": 673,
      "other": 674,
      "Ġdi": 675,
      "Ġfind": 676,
      "gg": 677,
      "Ġthr": 678,
      "Ġhit": 679,
      "Ġloo": 680,
      "Ġur": 681,
      "ute": 682,
      "Ġmade": 683,
      "ild": 684,
      "uff": 685,
      "Ġbre": 686,
      "Ġcause": 687,
      "Ġcool": 688,
      "ater": 689,
      "Ġold": 690,
      "Ġlist": 691,
      "ount": 692,
      "Ġtalk": 693,
      "tle": 694,
      "Ġsin": 695,
      "Ġsound": 696,
      "ors": 697,
      "Ġkid": 698,
      "Ġkind": 699,
      "Ġidk": 700,
      "Ġomg": 701,
      "Ġmin": 702,
      "Ġmon": 703,
      "ise": 704,
      "Ġisn": 705,
      "urs": 706,
      "ably": 707,
      "ody": 708,
      "Ġnah": 709,
      "lt": 710,
      "Ġsor": 711,
      "ease": 712,
      "Ġuse": 713,
      "Ġanything": 714,
      "Ġdoesn": 715,
      "kes": 716,
      "ock": 717,
      "Ġx": 718,
      "Ġend": 719,
      "Ġwar": 720,
      "Ġcr": 721,
      "ance": 722,
      "Ġper": 723,
      "itter": 724,
      "Ġstay": 725,
      "Ġres": 726,
      "Ġgod": 727,
      "Ġhell": 728,
      "Ġ:)": 729,
      "Ġbas": 730,
      "Ġhour": 731,
      "Ġnigg": 732,
      "Ġhard": 733,
      "Ġeveryone": 734,
      "Ġsmh": 735,
      "ked": 736,
      "Ġcont": 737,
      "Ġtweet": 738,
      "Ġhappy": 739,
      "Ġsorry": 740,
      "ful": 741,
      "Ġhead": 742,
      "ats": 743,
      "ated": 744,
      "Ġsince": 745,
      "act": 746,
      "Ġ7": 747,
      "Ġ8": 748,
      "Ġbab": 749,
      "Ġbitch": 750,
      "Ġcra": 751,
      "Ġcare": 752,
      "Ġprob": 753,
      "Ġthose": 754,
      "?!": 755,
      "mo": 756,
      "Ġfam": 757,
      "Ġop": 758,
      "Ġel": 759,
      "Ġrec": 760,
      "oney": 761,
      "Ġguess": 762,
      "Ġpret": 763,
      "ever": 764,
      "og": 765,
      "Ġmar": 766,
      "Ġcar": 767,
      "Ġread": 768,
      "Ġsupp": 769,
      "ect": 770,
      "ily": 771,
      "uh": 772,
      "vie": 773,
      "Ġbo": 774,
      "ress": 775,
      "ating": 776,
      "ory": 777,
      "Ġque": 778,
      "Ġaround": 779,
      "Ġinto": 780,
      "Ġvery": 781,
      "Ġ...": 782,
      "Ġwish": 783,
      "Ġbc": 784,
      "Ġla": 785,
      "ath": 786,
      "Ġpers": 787,
      "Ġtrue": 788,
      "???": 789,
      "pect": 790,
      "Ġhigh": 791,
      "body": 792,
      "less": 793,
      "zy": 794,
      "Ġthese": 795,
      "Ġtomor": 796,
      "orm": 797,
      "Ġgotta": 798,
      "Ġthinking": 799,
      "Ġcomp": 800,
      "Ġremem": 801,
      "Ġtomorrow": 802,
      "ace": 803,
      "ft": 804,
      "ved": 805,
      "vel": 806,
      "Ġsoon": 807,
      "ird": 808,
      "Ġdont": 809,
      "Ġplease": 810,
      "Ġclass": 811,
      "Ġliter": 812,
      "Ġthrough": 813,
      "lie": 814,
      "Ġwent": 815,
      "Ġanyone": 816,
      "Ġtwitter": 817,
      "Ġtalking": 818,
      "Ġperson": 819,
      "Ġremember": 820,
      "ach": 821,
      "ew": 822,
      "ose": 823,
      "Ġhouse": 824,
      "Ġcre": 825,
      "urn": 826,
      "Ġcoming": 827,
      "Ġweekend": 828,
      "Ġpretty": 829,
      "een": 830,
      "Ġ,": 831,
      "Ġpay": 832,
      "Ġ20": 833,
      "Ġpoint": 834,
      "Ġtwo": 835,
      "Ġthings": 836,
      "ww": 837,
      "Ġdri": 838,
      "Ġpick": 839,
      "ster": 840,
      "Ġstuff": 841,
      "Ġkill": 842,
      "Ġnothing": 843,
      "Ġmost": 844,
      "Ġhahaha": 845,
      "Ġlisten": 846,
      "ds": 847,
      "ts": 848,
      "Ġ!": 849,
      "Ġ6": 850,
      "Ġear": 851,
      "Ġton": 852,
      "Ġhate": 853,
      "Ġdone": 854,
      "eak": 855,
      "Ġhaven": 856,
      "Ġmyself": 857,
      "Ġmaybe": 858,
      "Ġprobably": 859,
      "Ġliterally": 860,
      "ph": 861,
      "Ġ9": 862,
      "Ġboth": 863,
      "Ġlive": 864,
      "ical": 865,
      "ither": 866,
      "onest": 867,
      "Ġtext": 868,
      "Ġyears": 869,
      "Ġjob": 870,
      "Ġphone": 871,
      "Ġsounds": 872,
      "Ġnigga": 873,
      "Ġtonight": 874,
      "les": 875,
      "Ġmoney": 876,
      "Ġhand": 877,
      "Ġhonest": 878,
      "Ġlm": 879,
      "Ġfree": 880,
      "Ġgl": 881,
      "Ġgive": 882,
      "Ġrel": 883,
      "Ġwasn": 884,
      "Ġsuck": 885,
      "Ġdec": 886,
      "Ġcompl": 887,
      "Ġexc": 888,
      "Ġunder": 889,
      "Ġwhile": 890,
      "ball": 891,
      "Ġes": 892,
      "Ġwal": 893,
      "inite": 894,
      "Ġboy": 895,
      "Ġyet": 896,
      "Ġown": 897,
      "ets": 898,
      "Ġworld": 899,
      "Ġconf": 900,
      "Ġlittle": 901,
      "Ġwonder": 902,
      "el": 903,
      "fa": 904,
      "Ġima": 905,
      "Ġlate": 906,
      "Ġgone": 907,
      "Ġnice": 908,
      "ash": 909,
      "Ġrn": 910,
      "Ġweird": 911,
      "Ġworking": 912,
      "Ġunt": 913,
      "Ġleast": 914,
      "ully": 915,
      "Ġcheck": 916,
      "ied": 917,
      "ps": 918,
      "Ġed": 919,
      "Ġbed": 920,
      "Ġmus": 921,
      "ames": 922,
      "Ġstud": 923,
      "ign": 924,
      "Ġfriends": 925,
      "Ġserious": 926,
      "tf": 927,
      "Ġ*": 928,
      "Ġdes": 929,
      "ange": 930,
      "ense": 931,
      "Ġeverything": 932,
      "Ġpol": 933,
      "Ġuntil": 934,
      "dy": 935,
      "oke": 936,
      "qu": 937,
      "Ġ$": 938,
      "Ġz": 939,
      "Ġsn": 940,
      "Ġhur": 941,
      "Ġvot": 942,
      "Ġseen": 943,
      "hhhh": 944,
      "Ġfew": 945,
      "Ġdefinite": 946,
      "Ġelse": 947,
      "ten": 948,
      "Ġyo": 949,
      "Ġfine": 950,
      "Ġproble": 951,
      "Ġfeeling": 952,
      "Ġheard": 953,
      "Ġacc": 954,
      "ix": 955,
      "ich": 956,
      "Ġeas": 957,
      "Ġty": 958,
      "Ġaway": 959,
      "Ġsy": 960,
      "Ġwow": 961,
      "Ġboo": 962,
      "ream": 963,
      "Ġfre": 964,
      "ord": 965,
      "ens": 966,
      "ics": 967,
      "Ġsaying": 968,
      "Ġfav": 969,
      "Ġbuy": 970,
      "Ġlmfa": 971,
      "Ġdefinitely": 972,
      "bs": 973,
      "ii": 974,
      "ible": 975,
      "ny": 976,
      "tt": 977,
      "Ġmid": 978,
      "Ġdead": 979,
      "Ġfan": 980,
      "Ġppl": 981,
      "Ġbelie": 982,
      "ict": 983,
      "ime": 984,
      "Ġwithout": 985,
      "Ġmakes": 986,
      "ffer": 987,
      "Ġdrop": 988,
      "Ġenough": 989,
      "Ġhours": 990,
      "most": 991,
      "io": 992,
      "Ġta": 993,
      "Ġsk": 994,
      "Ġsad": 995,
      "Ġtoget": 996,
      "Ġname": 997,
      "Ġanother": 998,
      "Ġev": 999,
      "Ġeat": 1000,
      "Ġeither": 1001,
      "Ġready": 1002,
      "Ġwatching": 1003,
      "Ġfollow": 1004,
      "fully": 1005,
      "gr": 1006,
      "ye": 1007,
      "Ġsong": 1008,
      "Ġcame": 1009,
      "Ġcry": 1010,
      "its": 1011,
      "iday": 1012,
      "Ġrun": 1013,
      "Ġtrump": 1014,
      "unch": 1015,
      "Ġago": 1016,
      "Ġlooking": 1017,
      "Ġhonestly": 1018,
      "ile": 1019,
      "atur": 1020,
      "Ġwhite": 1021,
      "Ġtimes": 1022,
      "ards": 1023,
      "Ġquest": 1024,
      "Ġtogether": 1025,
      "ger": 1026,
      "ian": 1027,
      "su": 1028,
      "Ġhu": 1029,
      "Ġda": 1030,
      "Ġcount": 1031,
      "Ġfood": 1032,
      "Ġpa": 1033,
      "Ġhaving": 1034,
      "Ġlost": 1035,
      "erest": 1036,
      "ade": 1037,
      "Ġhey": 1038,
      "Ġsuch": 1039,
      "ared": 1040,
      "Ġimp": 1041,
      "Ġparty": 1042,
      "Ġopen": 1043,
      "gs": 1044,
      "side": 1045,
      "Ġsing": 1046,
      "Ġwom": 1047,
      "Ġwater": 1048,
      "Ġbea": 1049,
      "Ġdad": 1050,
      "Ġinst": 1051,
      "Ġep": 1052,
      "ason": 1053,
      "Ġreg": 1054,
      "ction": 1055,
      "Ġyourself": 1056,
      "Ġalmost": 1057,
      "Ġneeds": 1058,
      "arent": 1059,
      "Ġblack": 1060,
      "Ġface": 1061,
      "Ġstarted": 1062,
      "Ġwrong": 1063,
      "Ġmonth": 1064,
      "Ġcrazy": 1065,
      "cy": 1066,
      "Ġsit": 1067,
      "Ġsna": 1068,
      "Ġwtf": 1069,
      "Ġment": 1070,
      "Ġcur": 1071,
      "atter": 1072,
      "Ġgen": 1073,
      "Ġgames": 1074,
      "ited": 1075,
      "Ġind": 1076,
      "Ġinter": 1077,
      "Ġonce": 1078,
      "Ġstr": 1079,
      "Ġchill": 1080,
      "Ġmaking": 1081,
      "Ġcold": 1082,
      "Ġfact": 1083,
      "Ġbelieve": 1084,
      "br": 1085,
      "dd": 1086,
      "ne": 1087,
      "Ġbout": 1088,
      "Ġmind": 1089,
      "Ġye": 1090,
      "Ġsho": 1091,
      "Ġret": 1092,
      "Ġreason": 1093,
      "Ġexact": 1094,
      "Ġcons": 1095,
      "Ġsecon": 1096,
      "Ġinterest": 1097,
      "Ġfinally": 1098,
      "Ġdiffer": 1099,
      "ah": 1100,
      "my": 1101,
      "Ġsim": 1102,
      "Ġmed": 1103,
      "Ġdra": 1104,
      "ings": 1105,
      "Ġpass": 1106,
      "uss": 1107,
      "umb": 1108,
      "Ġ10": 1109,
      "ssss": 1110,
      "Ġwanted": 1111,
      "Ġclose": 1112,
      "Ġused": 1113,
      "Ġguy": 1114,
      "ding": 1115,
      "ier": 1116,
      "pr": 1117,
      "ped": 1118,
      "Ġsur": 1119,
      "Ġbir": 1120,
      "Ġbus": 1121,
      "Ġmust": 1122,
      "Ġmine": 1123,
      "Ġhot": 1124,
      "Ġhun": 1125,
      "Ġfar": 1126,
      "Ġtop": 1127,
      "Ġthats": 1128,
      "ident": 1129,
      "eeee": 1130,
      "Ġatt": 1131,
      "Ġplace": 1132,
      "mail": 1133,
      "Ġwouldn": 1134,
      "Ġsaw": 1135,
      "Ġhopefully": 1136,
      "Ġbaby": 1137,
      "iv": 1138,
      "me": 1139,
      "Ġea": 1140,
      "Ġ..": 1141,
      "Ġturn": 1142,
      "Ġwy": 1143,
      "Ġbit": 1144,
      "ert": 1145,
      "Ġless": 1146,
      "ates": 1147,
      "Ġgi": 1148,
      "Ġtot": 1149,
      "stand": 1150,
      "Ġann": 1151,
      "ooo": 1152,
      "Ġfriday": 1153,
      "Ġtook": 1154,
      "Ġ:(": 1155,
      "Ġguys": 1156,
      "Ġroom": 1157,
      "Ġwaiting": 1158,
      "Ġhappened": 1159,
      "Ġbreak": 1160,
      "Ġkinda": 1161,
      "Ġmusic": 1162,
      "ib": 1163,
      "lo": 1164,
      "Ġtick": 1165,
      "Ġbor": 1166,
      "Ġcour": 1167,
      "Ġcatch": 1168,
      "Ġtold": 1169,
      "Ġinf": 1170,
      "als": 1171,
      "Ġmovie": 1172,
      "Ġcomm": 1173,
      "Ġplaying": 1174,
      "Ġcouldn": 1175,
      "Ġexactly": 1176,
      "30": 1177,
      "gn": 1178,
      "got": 1179,
      "ik": 1180,
      "ling": 1181,
      "sw": 1182,
      "Ġter": 1183,
      "ather": 1184,
      "Ġfull": 1185,
      "Ġpar": 1186,
      "isod": 1187,
      "Ġrest": 1188,
      "Ġgets": 1189,
      "Ġabs": 1190,
      "Ġplan": 1191,
      "riors": 1192,
      "Ġkids": 1193,
      "ursday": 1194,
      "Ġfamily": 1195,
      "Ġepisod": 1196,
      "Ġbirth": 1197,
      "ail": 1198,
      "bo": 1199,
      "ual": 1200,
      "Ġsend": 1201,
      "ered": 1202,
      "Ġluck": 1203,
      "Ġcute": 1204,
      "Ġhair": 1205,
      "Ġinc": 1206,
      "Ġemail": 1207,
      "Ġsuper": 1208,
      "Ġcomes": 1209,
      "ired": 1210,
      "Ġwarriors": 1211,
      "Ġsucks": 1212,
      "Ġfavor": 1213,
      "ians": 1214,
      "med": 1215,
      "oup": 1216,
      "ouch": 1217,
      "eric": 1218,
      "Ġhill": 1219,
      "Ġlow": 1220,
      "Ġnope": 1221,
      "ank": 1222,
      "Ġknew": 1223,
      "Ġchange": 1224,
      "cept": 1225,
      "Ġword": 1226,
      "Ġsays": 1227,
      "Ġbruh": 1228,
      "Ġdrink": 1229,
      "ize": 1230,
      "Ġeasy": 1231,
      "Ġlmfao": 1232,
      "est": 1233,
      "rit": 1234,
      "uu": 1235,
      "Ġav": 1236,
      "ont": 1237,
      "Ġdeal": 1238,
      "Ġhalf": 1239,
      "Ġhallow": 1240,
      "key": 1241,
      "Ġforgot": 1242,
      "Ġchild": 1243,
      "unk": 1244,
      "Ġseems": 1245,
      "Ġpost": 1246,
      "Ġweeks": 1247,
      "Ġawake": 1248,
      "Ġleg": 1249,
      "Ġhold": 1250,
      "Ġ201": 1251,
      "Ġunderstand": 1252,
      "Ġquestion": 1253,
      "Ġsecond": 1254,
      "Ġinteresting": 1255,
      "Ġtotally": 1256,
      "Ġhalloween": 1257,
      "no": 1258,
      "we": 1259,
      "wor": 1260,
      "ying": 1261,
      "Ġ'": 1262,
      "Ġ@": 1263,
      "Ġve": 1264,
      "Ġthursday": 1265,
      "Ġmess": 1266,
      "Ġhang": 1267,
      "red": 1268,
      "Ġcor": 1269,
      "Ġfight": 1270,
      "Ġfil": 1271,
      "Ġga": 1272,
      "ition": 1273,
      "utes": 1274,
      "Ġlil": 1275,
      "Ġstate": 1276,
      "ically": 1277,
      "Ġsun": 1278,
      "Ġseeing": 1279,
      "ations": 1280,
      "Ġ30": 1281,
      "ubs": 1282,
      "cially": 1283,
      "Ġminutes": 1284,
      "Ġearly": 1285,
      "Ġproblem": 1286,
      "Ġsnap": 1287,
      "Ġdifferent": 1288,
      "Ġcourse": 1289,
      "Ġbirthday": 1290,
      "co": 1291,
      "ces": 1292,
      "du": 1293,
      "joy": 1294,
      "nn": 1295,
      "ner": 1296,
      "Ġ;": 1297,
      "Ġill": 1298,
      "Ġama": 1299,
      "eaks": 1300,
      "Ġmeet": 1301,
      "ark": 1302,
      "Ġshot": 1303,
      "imes": 1304,
      "Ġgoes": 1305,
      "Ġcant": 1306,
      "Ġtried": 1307,
      "haha": 1308,
      "Ġsport": 1309,
      "Ġspurs": 1310,
      "Ġbring": 1311,
      "Ġwatched": 1312,
      "Ġenjoy": 1313,
      "Ġfinish": 1314,
      "Ġfavorite": 1315,
      "by": 1316,
      "ced": 1317,
      "dle": 1318,
      "land": 1319,
      "more": 1320,
      "Ġer": 1321,
      "Ġside": 1322,
      "Ġwoke": 1323,
      "ins": 1324,
      "Ġhop": 1325,
      "Ġdream": 1326,
      "Ġcat": 1327,
      "Ġansw": 1328,
      "ese": 1329,
      "Ġins": 1330,
      "ama": 1331,
      "Ġstar": 1332,
      "Ġstory": 1333,
      "Ġdog": 1334,
      "ume": 1335,
      "Ġexpect": 1336,
      "Ġspe": 1337,
      "Ġwhole": 1338,
      "Ġscared": 1339,
      "Ġmissed": 1340,
      "olog": 1341,
      "Ġpray": 1342,
      "Ġgirls": 1343,
      "Ġseriously": 1344,
      "Ġtaking": 1345,
      "line": 1346,
      "ping": 1347,
      "vent": 1348,
      "Ġtre": 1349,
      "Ġtill": 1350,
      "Ġset": 1351,
      "Ġsatur": 1352,
      "Ġwear": 1353,
      "Ġmatter": 1354,
      "Ġhom": 1355,
      "ond": 1356,
      "Ġlab": 1357,
      "Ġcle": 1358,
      "Ġfall": 1359,
      "iting": 1360,
      "Ġob": 1361,
      "uth": 1362,
      "Ġstand": 1363,
      "vers": 1364,
      "Ġups": 1365,
      "Ġtra": 1366,
      "Ġtrip": 1367,
      "this": 1368,
      "Ġwhatever": 1369,
      "Ġaren": 1370,
      "Ġworst": 1371,
      "Ġworth": 1372,
      "Ġvis": 1373,
      "Ġagree": 1374,
      "Ġplayed": 1375,
      "Ġscre": 1376,
      "Ġidea": 1377,
      "Ġgreen": 1378,
      "Ġhappens": 1379,
      "ealth": 1380,
      "where": 1381,
      "Ġsupport": 1382,
      "Ġcomplain": 1383,
      "Ġwomen": 1384,
      "Ġepisode": 1385,
      "Ġamaz": 1386,
      "Ġsaturday": 1387,
      ".\"": 1388,
      "ape": 1389,
      "cer": 1390,
      "go": 1391,
      "ipp": 1392,
      "la": 1393,
      "Ġet": 1394,
      "Ġtak": 1395,
      "Ġthree": 1396,
      "Ġbook": 1397,
      "ons": 1398,
      "Ġdou": 1399,
      "Ġdur": 1400,
      "Ġdumb": 1401,
      "Ġfore": 1402,
      "Ġpain": 1403,
      "ised": 1404,
      "Ġrand": 1405,
      "Ġkick": 1406,
      "the": 1407,
      "Ġask": 1408,
      "ross": 1409,
      "Ġmove": 1410,
      "Ġ100": 1411,
      "Ġspeak": 1412,
      "Ġcoll": 1413,
      "Ġblock": 1414,
      "fect": 1415,
      "Ġsometimes": 1416,
      "ooooo": 1417,
      "aaaa": 1418,
      "fort": 1419,
      "led": 1420,
      "ned": 1421,
      "ser": 1422,
      "ted": 1423,
      "Ġ/": 1424,
      "ĠĠ": 1425,
      "Ġtb": 1426,
      "Ġtv": 1427,
      "ering": 1428,
      "Ġlear": 1429,
      "Ġdep": 1430,
      "Ġdate": 1431,
      "Ġdick": 1432,
      "ative": 1433,
      "Ġfound": 1434,
      "Ġparent": 1435,
      "esome": 1436,
      ".....": 1437,
      "Ġmeant": 1438,
      "Ġforget": 1439,
      "ush": 1440,
      "Ġvide": 1441,
      "Ġext": 1442,
      "Ġexpl": 1443,
      "Ġawesome": 1444,
      "ific": 1445,
      "Ġadd": 1446,
      "Ġrace": 1447,
      "ship": 1448,
      "Ġfoot": 1449,
      "Ġhurt": 1450,
      "Ġbeaut": 1451,
      "av": 1452,
      "form": 1453,
      "gine": 1454,
      "ho": 1455,
      "ient": 1456,
      "ience": 1457,
      "mber": 1458,
      "ness": 1459,
      "Ġap": 1460,
      "Ġsense": 1461,
      "Ġwed": 1462,
      "Ġben": 1463,
      "Ġbar": 1464,
      "Ġball": 1465,
      "Ġbur": 1466,
      "Ġhealth": 1467,
      "Ġcal": 1468,
      "lly": 1469,
      "Ġopt": 1470,
      "ete": 1471,
      "ase": 1472,
      "Ġjack": 1473,
      "Ġlose": 1474,
      "outh": 1475,
      "Ġsol": 1476,
      "Ġwass": 1477,
      "Ġtrain": 1478,
      "Ġtrans": 1479,
      "Ġoutside": 1480,
      "Ġplus": 1481,
      "aught": 1482,
      "Ġexper": 1483,
      "Ġameric": 1484,
      "pecially": 1485,
      "Ġtryna": 1486,
      "upid": 1487,
      "Ġprom": 1488,
      "Ġleft": 1489,
      "Ġseries": 1490,
      "Ġlooks": 1491,
      "view": 1492,
      "Ġglad": 1493,
      "Ġespecially": 1494,
      "Ġwalk": 1495,
      "Ġmiddle": 1496,
      "Ġhuge": 1497,
      "Ġmedia": 1498,
      "Ġannoy": 1499,
      "Ġhillary": 1500,
      "gt": 1501,
      "ls": 1502,
      "ming": 1503,
      "ton": 1504,
      "Ġsick": 1505,
      "Ġbi": 1506,
      "Ġlady": 1507,
      "Ġdm": 1508,
      "Ġcut": 1509,
      "Ġfut": 1510,
      "lls": 1511,
      "Ġner": 1512,
      "ane": 1513,
      "Ġpop": 1514,
      "Ġpast": 1515,
      "stem": 1516,
      "Ġbeat": 1517,
      "Ġmeans": 1518,
      "Ġje": 1519,
      "Ġstupid": 1520,
      "Ġrep": 1521,
      "ices": 1522,
      "Ġcho": 1523,
      "Ġable": 1524,
      "ileaks": 1525,
      "Ġmaj": 1526,
      "Ġanymore": 1527,
      "Ġcost": 1528,
      "Ġpres": 1529,
      "olute": 1530,
      "Ġart": 1531,
      "Ġlots": 1532,
      "Ġleave": 1533,
      "ift": 1534,
      "iful": 1535,
      "Ġheart": 1536,
      "Ġswear": 1537,
      "Ġhoe": 1538,
      "cial": 1539,
      "what": 1540,
      "Ġrespect": 1541,
      "Ġcontro": 1542,
      "Ġdrive": 1543,
      "Ġvote": 1544,
      "Ġcountry": 1545,
      "Ġsingle": 1546,
      "Ġshoot": 1547,
      "ikileaks": 1548,
      "Ġtbh": 1549,
      "fer": 1550,
      "gue": 1551,
      "lic": 1552,
      "ng": 1553,
      "not": 1554,
      "Ġcity": 1555,
      "ann": 1556,
      "Ġps": 1557,
      "ism": 1558,
      "Ġugh": 1559,
      "irt": 1560,
      "Ġasked": 1561,
      "Ġchar": 1562,
      "Ġdeb": 1563,
      "Ġvo": 1564,
      "Ġ11": 1565,
      "Ġwants": 1566,
      "Ġclear": 1567,
      "Ġblow": 1568,
      "ored": 1569,
      "osed": 1570,
      "Ġbroke": 1571,
      "Ġrac": 1572,
      "yyyy": 1573,
      "Ġremind": 1574,
      "Ġresp": 1575,
      "Ġtweets": 1576,
      "Ġsystem": 1577,
      "Ġtickets": 1578,
      "Ġabsolute": 1579,
      "box": 1580,
      "Ġamazing": 1581,
      "Ġbeautiful": 1582,
      "Ġwassup": 1583,
      "Ġfuture": 1584,
      "igh": 1585,
      "ial": 1586,
      "mer": 1587,
      "right": 1588,
      "tr": 1589,
      "ues": 1590,
      "ule": 1591,
      "yle": 1592,
      "Ġ....": 1593,
      "Ġtf": 1594,
      "Ġtouch": 1595,
      "Ġsign": 1596,
      "Ġline": 1597,
      "Ġlater": 1598,
      "rest": 1599,
      "Ġdet": 1600,
      "Ġce": 1601,
      "Ġcu": 1602,
      "Ġcook": 1603,
      "Ġfake": 1604,
      "Ġpin": 1605,
      "Ġpri": 1606,
      "Ġele": 1607,
      "Ġeff": 1608,
      "ara": 1609,
      "Ġstre": 1610,
      "Ġrepl": 1611,
      "ents": 1612,
      "Ġtrust": 1613,
      "Ġknows": 1614,
      "Ġalright": 1615,
      "Ġdem": 1616,
      "ault": 1617,
      "Ġexp": 1618,
      "ffee": 1619,
      "Ġsex": 1620,
      "Ġcoach": 1621,
      "Ġusually": 1622,
      "Ġsleeping": 1623,
      "Ġteach": 1624,
      "Ġagainst": 1625,
      "!!!!!!!!": 1626,
      "Ġslow": 1627,
      "Ġxbox": 1628,
      "Ġbase": 1629,
      "sterday": 1630,
      "Ġkilled": 1631,
      "Ġexcited": 1632,
      "Ġinstead": 1633,
      "ney": 1634,
      "Ġyesterday": 1635,
      "Ġduring": 1636,
      "aw": 1637,
      "app": 1638,
      "cal": 1639,
      "come": 1640,
      "ket": 1641,
      "ler": 1642,
      "man": 1643,
      "tw": 1644,
      "ug": 1645,
      "use": 1646,
      "Ġive": 1647,
      "Ġair": 1648,
      "ines": 1649,
      "oud": 1650,
      "Ġhmm": 1651,
      "ones": 1652,
      "Ġcop": 1653,
      "Ġfix": 1654,
      "Ġnear": 1655,
      "Ġnorm": 1656,
      "Ġpow": 1657,
      "ety": 1658,
      "Ġones": 1659,
      "Ġlight": 1660,
      "Ġissu": 1661,
      "Ġjud": 1662,
      "Ġrepe": 1663,
      "Ġgoal": 1664,
      "unt": 1665,
      "acks": 1666,
      "gest": 1667,
      "rist": 1668,
      "ried": 1669,
      "Ġneeded": 1670,
      "Ġposs": 1671,
      "Ġprodu": 1672,
      "hhh": 1673,
      "Ġshouldn": 1674,
      "Ġrock": 1675,
      "Ġshows": 1676,
      "Ġwinter": 1677,
      "Ġfunny": 1678,
      "Ġhandle": 1679,
      "Ġesc": 1680,
      "Ġgener": 1681,
      "Ġhung": 1682,
      "Ġeach": 1683,
      "Ġrandom": 1684,
      "Ġmajor": 1685,
      "Ġissues": 1686,
      "ba": 1687,
      "but": 1688,
      "gy": 1689,
      "ior": 1690,
      "ky": 1691,
      "rup": 1692,
      "ween": 1693,
      "Ġ!!": 1694,
      "Ġtil": 1695,
      "Ġir": 1696,
      "Ġign": 1697,
      "Ġwikileaks": 1698,
      "iness": 1699,
      "Ġlink": 1700,
      "Ġcamp": 1701,
      "Ġcubs": 1702,
      "Ġnum": 1703,
      "Ġopp": 1704,
      "Ġinv": 1705,
      "Ġliving": 1706,
      "Ġround": 1707,
      "Ġrather": 1708,
      "Ġdope": 1709,
      "Ġchang": 1710,
      "Ġchance": 1711,
      "ants": 1712,
      "Ġsomebody": 1713,
      "used": 1714,
      "Ġval": 1715,
      "Ġ19": 1716,
      "ract": 1717,
      "Ġunless": 1718,
      "Ġtest": 1719,
      "Ġcover": 1720,
      "Ġfucked": 1721,
      "ult": 1722,
      "Ġstarting": 1723,
      "Ġleaving": 1724,
      "Ġwrite": 1725,
      "Ġbuild": 1726,
      "Ġquick": 1727,
      "Ġperfect": 1728,
      "Ġcontin": 1729,
      "Ġopin": 1730,
      "Ġreading": 1731,
      "phone": 1732,
      "Ġwonderful": 1733,
      "Ġpolit": 1734,
      "Ġmention": 1735,
      "Ġsurpr": 1736,
      "Ġsports": 1737,
      "Ġfinished": 1738,
      "Ġhoping": 1739,
      "Ġanswer": 1740,
      "Ġetc": 1741,
      "Ġtakes": 1742,
      "Ġbaseball": 1743,
      "Ġnumber": 1744,
      "com": 1745,
      "cess": 1746,
      "fs": 1747,
      "he": 1748,
      "how": 1749,
      "min": 1750,
      "mit": 1751,
      "nd": 1752,
      "ru": 1753,
      "sp": 1754,
      "time": 1755,
      "ward": 1756,
      "you": 1757,
      "yes": 1758,
      "Ġent": 1759,
      "Ġik": 1760,
      "Ġbought": 1761,
      "ero": 1762,
      "Ġhum": 1763,
      "Ġlu": 1764,
      "rent": 1765,
      "Ġdist": 1766,
      "Ġfig": 1767,
      "Ġfast": 1768,
      "Ġgay": 1769,
      "Ġnor": 1770,
      "Ġyoung": 1771,
      "Ġpull": 1772,
      "Ġeating": 1773,
      "Ġliked": 1774,
      "Ġstra": 1775,
      "Ġstress": 1776,
      "idence": 1777,
      "eep": 1778,
      "ional": 1779,
      "Ġasleep": 1780,
      "Ġalone": 1781,
      "und": 1782,
      "ilar": 1783,
      "ucks": 1784,
      "Ġdev": 1785,
      "Ġ200": 1786,
      "arely": 1787,
      "Ġsave": 1788,
      "Ġcoffee": 1789,
      "Ġworked": 1790,
      "Ġteams": 1791,
      "Ġfelt": 1792,
      "Ġadv": 1793,
      "Ġgrand": 1794,
      "Ġsched": 1795,
      "Ġdisc": 1796,
      "Ġlaw": 1797,
      "Ġcompan": 1798,
      "Ġcred": 1799,
      "Ġproblems": 1800,
      "Ġtype": 1801,
      "Ġmonths": 1802,
      "Ġemails": 1803,
      "ology": 1804,
      "Ġhomie": 1805,
      "Ġvisit": 1806,
      "Ġforever": 1807,
      "Ġexperience": 1808,
      "Ġnormal": 1809,
      "Ġproduct": 1810,
      "__": 1811,
      "de": 1812,
      "fli": 1813,
      "gan": 1814,
      "kk": 1815,
      "kin": 1816,
      "ric": 1817,
      "sm": 1818,
      "Ġther": 1819,
      "ina": 1820,
      "Ġbot": 1821,
      "Ġbud": 1822,
      "Ġbtw": 1823,
      "Ġmen": 1824,
      "Ġmatch": 1825,
      "Ġhuh": 1826,
      "Ġdie": 1827,
      "Ġyup": 1828,
      "Ġcap": 1829,
      "Ġcoup": 1830,
      "Ġfit": 1831,
      "Ġfans": 1832,
      "Ġgas": 1833,
      "Ġgar": 1834,
      "Ġtown": 1835,
      "Ġnet": 1836,
      "ana": 1837,
      "Ġpat": 1838,
      "ital": 1839,
      "Ġlie": 1840,
      "Ġjun": 1841,
      "Ġshop": 1842,
      "Ġrad": 1843,
      "Ġrich": 1844,
      "ads": 1845,
      "illy": 1846,
      "Ġheat": 1847,
      "Ġupd": 1848,
      "Ġtruth": 1849,
      "Ġchick": 1850,
      "Ġworks": 1851,
      "Ġwords": 1852,
      "pper": 1853,
      "Ġmoving": 1854,
      "Ġmac": 1855,
      "ately": 1856,
      "Ġanyway": 1857,
      "Ġ14": 1858,
      "Ġsec": 1859,
      "Ġbetween": 1860,
      "Ġ:/": 1861,
      "Ġscen": 1862,
      "Ġlets": 1863,
      "oooooo": 1864,
      "Ġleague": 1865,
      "ublic": 1866,
      "Ġcalled": 1867,
      "Ġswitch": 1868,
      "Ġsweet": 1869,
      "ized": 1870,
      "Ġhahahaha": 1871,
      "Ġlistening": 1872,
      "Ġimagine": 1873,
      "Ġdeser": 1874,
      "Ġcrying": 1875,
      "Ġcurrent": 1876,
      "Ġindians": 1877,
      "Ġboring": 1878,
      "Ġgave": 1879,
      "Ġupset": 1880,
      "Ġcolle": 1881,
      "Ġextra": 1882,
      "Ġabsolutely": 1883,
      "Ġcuz": 1884,
      "Ġfigure": 1885,
      "flix": 1886,
      "Ġnetflix": 1887,
      "ac": 1888,
      "aking": 1889,
      "just": 1890,
      "ject": 1891,
      "light": 1892,
      "with": 1893,
      "za": 1894,
      "Ġ??": 1895,
      "Ġtur": 1896,
      "Ġthrow": 1897,
      "Ġson": 1898,
      "Ġwind": 1899,
      "Ġbag": 1900,
      "Ġmi": 1901,
      "Ġmet": 1902,
      "Ġmouse": 1903,
      "Ġhor": 1904,
      "Ġlay": 1905,
      "reci": 1906,
      "Ġdire": 1907,
      "Ġcard": 1908,
      "ato": 1909,
      "Ġfol": 1910,
      "lling": 1911,
      "llll": 1912,
      "Ġpan": 1913,
      "Ġpie": 1914,
      "ote": 1915,
      "vember": 1916,
      "Ġhar": 1917,
      "oop": 1918,
      "oose": 1919,
      "Ġum": 1920,
      "Ġeyes": 1921,
      "Ġoften": 1922,
      "Ġsta": 1923,
      "Ġstep": 1924,
      "Ġstick": 1925,
      "Ġlock": 1926,
      "Ġrid": 1927,
      "Ġwest": 1928,
      "ality": 1929,
      "Ġsoft": 1930,
      "ently": 1931,
      "Ġchrist": 1932,
      "Ġnobody": 1933,
      "Ġnovember": 1934,
      "ears": 1935,
      "ield": 1936,
      "Ġeverybody": 1937,
      "Ġpos": 1938,
      "Ġpoor": 1939,
      "Ġplayers": 1940,
      "Ġnews": 1941,
      "Ġcalling": 1942,
      "Ġapple": 1943,
      "Ġcheese": 1944,
      "Ġdied": 1945,
      "Ġrecord": 1946,
      "veland": 1947,
      "Ġhands": 1948,
      "Ġedm": 1949,
      "Ġsitu": 1950,
      "Ġinterview": 1951,
      "Ġlegit": 1952,
      "Ġsunday": 1953,
      "Ġdreams": 1954,
      "Ġwearing": 1955,
      "fortable": 1956,
      "Ġpower": 1957,
      "Ġschedule": 1958,
      "Ġcollege": 1959,
      "ale": 1960,
      "cle": 1961,
      "here": 1962,
      "ker": 1963,
      "rr": 1964,
      "te": 1965,
      "Ġtough": 1966,
      "Ġsal": 1967,
      "Ġsqu": 1968,
      "Ġwild": 1969,
      "Ġba": 1970,
      "Ġlunch": 1971,
      "ren": 1972,
      "res": 1973,
      "Ġdin": 1974,
      "Ġdark": 1975,
      "Ġtom": 1976,
      "oring": 1977,
      "anye": 1978,
      "Ġpet": 1979,
      "ising": 1980,
      "isus": 1981,
      "oof": 1982,
      "lev": 1983,
      "ley": 1984,
      "Ġmemor": 1985,
      "Ġjump": 1986,
      "Ġshame": 1987,
      "ider": 1988,
      "Ġkanye": 1989,
      "Ġsocial": 1990,
      "eee": 1991,
      "irit": 1992,
      "that": 1993,
      "Ġsub": 1994,
      "Ġgotch": 1995,
      "Ġorder": 1996,
      "Ġdel": 1997,
      "essed": 1998,
      "Ġ12": 1999,
      "Ġconst": 2000,
      "ffs": 2001,
      "Ġself": 2002,
      "Ġsafe": 2003,
      "Ġblood": 2004,
      "Ġplayer": 2005,
      "Ġusing": 2006,
      "Ġarg": 2007,
      "oooooooo": 2008,
      "Ġkept": 2009,
      "Ġaww": 2010,
      "Ġdrunk": 2011,
      "Ġeng": 2012,
      "Ġfell": 2013,
      "Ġphot": 2014,
      "ires": 2015,
      "Ġwins": 2016,
      "Ġ40": 2017,
      "Ġappreci": 2018,
      "Ġemot": 2019,
      "Ġaccept": 2020,
      "Ġmoment": 2021,
      "Ġbabe": 2022,
      "velop": 2023,
      "Ġcomplete": 2024,
      "Ġstudy": 2025,
      "Ġpolic": 2026,
      "Ġskin": 2027,
      "Ġintern": 2028,
      "Ġsimilar": 2029,
      "Ġwyd": 2030,
      "Ġcommun": 2031,
      "Ġfilm": 2032,
      "Ġcleveland": 2033,
      "thisisus": 2034,
      "Ġvideo": 2035,
      "Ġfootball": 2036,
      "Ġannoying": 2037,
      "Ġeffect": 2038,
      "Ġescape": 2039,
      "Ġhungry": 2040,
      "Ġstraight": 2041,
      "Ġcouple": 2042,
      "Ġappreciate": 2043,
      "10": 2044,
      "cast": 2045,
      "ges": 2046,
      "lish": 2047,
      "lcome": 2048,
      "mi": 2049,
      "mend": 2050,
      "nes": 2051,
      "ror": 2052,
      "sn": 2053,
      "ugg": 2054,
      "vies": 2055,
      "vious": 2056,
      "ym": 2057,
      "Ġ0": 2058,
      "Ġ^": 2059,
      "ĠĠĊ": 2060,
      "Ġah": 2061,
      "Ġsat": 2062,
      "Ġsent": 2063,
      "Ġwit": 2064,
      "Ġwide": 2065,
      "Ġwrest": 2066,
      "Ġbarely": 2067,
      "Ġmc": 2068,
      "Ġlame": 2069,
      "Ġlead": 2070,
      "Ġlying": 2071,
      "ret": 2072,
      "Ġdat": 2073,
      "Ġden": 2074,
      "Ġyep": 2075,
      "Ġcent": 2076,
      "Ġfat": 2077,
      "Ġfool": 2078,
      "Ġge": 2079,
      "orn": 2080,
      "ories": 2081,
      "Ġnon": 2082,
      "Ġyoure": 2083,
      "Ġpal": 2084,
      "Ġpiss": 2085,
      "Ġpict": 2086,
      "ision": 2087,
      "oos": 2088,
      "Ġuber": 2089,
      "Ġshort": 2090,
      "ids": 2091,
      "Ġloss": 2092,
      "Ġref": 2093,
      "Ġwelcome": 2094,
      "Ġdoor": 2095,
      "Ġtro": 2096,
      "Ġtrash": 2097,
      "Ġknowing": 2098,
      "Ġsumm": 2099,
      "Ġmovies": 2100,
      "ender": 2101,
      "epy": 2102,
      "Ġthinks": 2103,
      "Ġdeck": 2104,
      "Ġdevelop": 2105,
      "ript": 2106,
      "Ġconcer": 2107,
      "Ġimma": 2108,
      "Ġclos": 2109,
      "ationship": 2110,
      "Ġbrother": 2111,
      "Ġways": 2112,
      "Ġfair": 2113,
      "Ġfail": 2114,
      "ists": 2115,
      "Ġhahah": 2116,
      "Ġbye": 2117,
      "Ġsmoke": 2118,
      "Ġintent": 2119,
      "Ġkey": 2120,
      "Ġwont": 2121,
      "ubb": 2122,
      "ments": 2123,
      "Ġstopped": 2124,
      "Ġapply": 2125,
      "Ġwrit": 2126,
      "Ġquit": 2127,
      "Ġhella": 2128,
      "Ġniggas": 2129,
      "wwww": 2130,
      "Ġ90": 2131,
      "Ġrelationship": 2132,
      "Ġaccount": 2133,
      "Ġevent": 2134,
      "Ġwoman": 2135,
      "Ġcurious": 2136,
      "ssssssss": 2137,
      "Ġbusiness": 2138,
      "Ġterri": 2139,
      "Ġscrew": 2140,
      "Ġexplain": 2141,
      "Ġvoice": 2142,
      "Ġracist": 2143,
      "Ġsurprised": 2144,
      "Ġradio": 2145,
      "Ġdeserve": 2146,
      "Ġfolks": 2147,
      "bin": 2148,
      "band": 2149,
      "gin": 2150,
      "gas": 2151,
      "weet": 2152,
      "wise": 2153,
      "xx": 2154,
      "zz": 2155,
      "Ġ=": 2156,
      "Ġtast": 2157,
      "Ġwast": 2158,
      "Ġbra": 2159,
      "Ġburn": 2160,
      "Ġmf": 2161,
      "Ġmis": 2162,
      "Ġmil": 2163,
      "Ġhm": 2164,
      "Ġlau": 2165,
      "Ġdun": 2166,
      "Ġyay": 2167,
      "Ġcup": 2168,
      "Ġcards": 2169,
      "Ġcase": 2170,
      "ature": 2171,
      "attle": 2172,
      "Ġfro": 2173,
      "Ġny": 2174,
      "Ġpiz": 2175,
      "Ġpublic": 2176,
      "ommend": 2177,
      "eap": 2178,
      "Ġeye": 2179,
      "chat": 2180,
      "ides": 2181,
      "Ġride": 2182,
      "Ġka": 2183,
      "Ġbutt": 2184,
      "iced": 2185,
      "Ġtrade": 2186,
      "Ġasking": 2187,
      "Ġcha": 2188,
      "rove": 2189,
      "ters": 2190,
      "Ġallow": 2191,
      "Ġplat": 2192,
      "ending": 2193,
      "Ġsomewhere": 2194,
      "ument": 2195,
      "Ġseem": 2196,
      "Ġ15": 2197,
      "Ġcol": 2198,
      "Ġblue": 2199,
      "Ġpepper": 2200,
      "Ġprof": 2201,
      "Ġplays": 2202,
      "ational": 2203,
      "ister": 2204,
      "Ġbecome": 2205,
      "Ġsleepy": 2206,
      "Ġsmall": 2207,
      "osp": 2208,
      "Ġstarts": 2209,
      "Ġnail": 2210,
      "Ġprice": 2211,
      "Ġawful": 2212,
      "Ġothers": 2213,
      "Ġtelling": 2214,
      "Ġcrit": 2215,
      "Ġstaying": 2216,
      "Ġrecommend": 2217,
      "Ġsupposed": 2218,
      "Ġpaying": 2219,
      "Ġdriver": 2220,
      "Ġrelig": 2221,
      "Ġexcuse": 2222,
      "Ġrunning": 2223,
      "Ġpaid": 2224,
      "Ġsitting": 2225,
      "Ġfacts": 2226,
      "Ġconsid": 2227,
      "Ġwya": 2228,
      "Ġgiving": 2229,
      "Ġticket": 2230,
      "Ġlucky": 2231,
      "world": 2232,
      "Ġ;)": 2233,
      "Ġscreen": 2234,
      "Ġdouble": 2235,
      "Ġlearn": 2236,
      "Ġapart": 2237,
      "Ġwedding": 2238,
      "Ġpromise": 2239,
      "Ġpresident": 2240,
      "Ġcontrol": 2241,
      "Ġcele": 2242,
      "Ġpossible": 2243,
      "Ġchanged": 2244,
      "Ġnorth": 2245,
      "Ġsituation": 2246,
      "Ġpicture": 2247,
      "Ġpizza": 2248,
      "!?": 2249,
      "**": 2250,
      "15": 2251,
      "16": 2252,
      "20": 2253,
      "?\"": 2254,
      "bb": 2255,
      "bit": 2256,
      "bra": 2257,
      "book": 2258,
      "ex": 2259,
      "ell": 2260,
      "fl": 2261,
      "fit": 2262,
      "ging": 2263,
      "gly": 2264,
      "gic": 2265,
      "iara": 2266,
      "ja": 2267,
      "ka": 2268,
      "mon": 2269,
      "now": 2270,
      "rs": 2271,
      "ris": 2272,
      "vin": 2273,
      "vous": 2274,
      "Ġtl": 2275,
      "Ġage": 2276,
      "Ġaff": 2277,
      "Ġaint": 2278,
      "Ġsort": 2279,
      "Ġsouth": 2280,
      "Ġwo": 2281,
      "Ġwis": 2282,
      "Ġbored": 2283,
      "Ġmot": 2284,
      "Ġmouth": 2285,
      "Ġhist": 2286,
      "Ġhosp": 2287,
      "Ġdv": 2288,
      "Ġca": 2289,
      "Ġcust": 2290,
      "Ġcous": 2291,
      "Ġcross": 2292,
      "att": 2293,
      "Ġfb": 2294,
      "Ġff": 2295,
      "Ġfur": 2296,
      "Ġfour": 2297,
      "Ġfault": 2298,
      "Ġgun": 2299,
      "Ġnatur": 2300,
      "anish": 2301,
      "Ġpu": 2302,
      "Ġpic": 2303,
      "Ġpract": 2304,
      "ston": 2305,
      "Ġhall": 2306,
      "Ġugly": 2307,
      "uter": 2308,
      "Ġlives": 2309,
      "Ġjan": 2310,
      "Ġstat": 2311,
      "Ġshut": 2312,
      "Ġlocal": 2313,
      "sel": 2314,
      "sell": 2315,
      "Ġred": 2316,
      "Ġrain": 2317,
      "!!!!!": 2318,
      "illed": 2319,
      "cto": 2320,
      "Ġkno": 2321,
      "Ġfront": 2322,
      "Ġyours": 2323,
      "Ġworry": 2324,
      "Ġalong": 2325,
      "Ġsug": 2326,
      "Ġsum": 2327,
      "Ġoutta": 2328,
      "acking": 2329,
      "Ġvs": 2330,
      "Ġexcept": 2331,
      "????": 2332,
      "Ġspirit": 2333,
      "Ġtech": 2334,
      "Ġfuckin": 2335,
      "Ġcloth": 2336,
      "Ġfeels": 2337,
      "ular": 2338,
      "Ġ:-": 2339,
      "Ġbrain": 2340,
      "Ġpress": 2341,
      "Ġsometime": 2342,
      "Ġacting": 2343,
      "Ġhimself": 2344,
      "Ġnap": 2345,
      "Ġprop": 2346,
      "Ġlooked": 2347,
      "Ġjoin": 2348,
      "Ġotherwise": 2349,
      "Ġapparent": 2350,
      "Ġwriting": 2351,
      "Ġemo": 2352,
      "others": 2353,
      "Ġdisney": 2354,
      "whi": 2355,
      "Ġflo": 2356,
      "Ġbased": 2357,
      "Ġsuppor": 2358,
      "Ġwondering": 2359,
      "Ġvoted": 2360,
      "Ġfresh": 2361,
      "ensive": 2362,
      "Ġsongs": 2363,
      "Ġretweet": 2364,
      "Ġbusy": 2365,
      "Ġavi": 2366,
      "Ġvegas": 2367,
      "Ġprayers": 2368,
      "Ġparents": 2369,
      "Ġamerica": 2370,
      "Ġcooked": 2371,
      "Ġjudge": 2372,
      "Ġcontinue": 2373,
      "Ġtheres": 2374,
      "Ġchicken": 2375,
      "Ġdinner": 2376,
      "Ġkawhi": 2377,
      "Ġhospital": 2378,
      "Ġapparently": 2379,
      "50": 2380,
      "bt": 2381,
      "bar": 2382,
      "cr": 2383,
      "can": 2384,
      "den": 2385,
      "fu": 2386,
      "gi": 2387,
      "gle": 2388,
      "ios": 2389,
      "mas": 2390,
      "pro": 2391,
      "son": 2392,
      "tu": 2393,
      "tin": 2394,
      "vy": 2395,
      "vate": 2396,
      "writ": 2397,
      "Ġtip": 2398,
      "Ġahhhh": 2399,
      "Ġthre": 2400,
      "Ġsoooo": 2401,
      "Ġwer": 2402,
      "Ġbb": 2403,
      "Ġbill": 2404,
      "Ġbum": 2405,
      "Ġmer": 2406,
      "Ġmas": 2407,
      "Ġmal": 2408,
      "Ġmur": 2409,
      "Ġmich": 2410,
      "Ġhea": 2411,
      "Ġlou": 2412,
      "rect": 2413,
      "Ġyall": 2414,
      "Ġyess": 2415,
      "Ġcoun": 2416,
      "Ġciara": 2417,
      "Ġfire": 2418,
      "lla": 2419,
      "Ġnone": 2420,
      "Ġnba": 2421,
      "Ġpen": 2422,
      "Ġpee": 2423,
      "Ġpack": 2424,
      "Ġport": 2425,
      "Ġpump": 2426,
      "Ġpants": 2427,
      "ities": 2428,
      "esus": 2429,
      "omer": 2430,
      "Ġhavent": 2431,
      "Ġuh": 2432,
      "Ġeh": 2433,
      "Ġest": 2434,
      "Ġequ": 2435,
      "uts": 2436,
      "amed": 2437,
      "Ġjam": 2438,
      "ided": 2439,
      "Ġforward": 2440,
      "Ġring": 2441,
      "Ġrod": 2442,
      "Ġdoll": 2443,
      "Ġdogs": 2444,
      "Ġcannot": 2445,
      "ention": 2446,
      "Ġtru": 2447,
      "Ġchem": 2448,
      "Ġnose": 2449,
      "ends": 2450,
      "ended": 2451,
      "Ġdeli": 2452,
      "Ġconn": 2453,
      "Ġcongr": 2454,
      "Ġspr": 2455,
      "Ġspanish": 2456,
      "Ġshitty": 2457,
      "ourn": 2458,
      "udes": 2459,
      "Ġtwice": 2460,
      "Ġblah": 2461,
      "Ġamount": 2462,
      "Ġlmaoo": 2463,
      "Ġbrown": 2464,
      "Ġscript": 2465,
      "Ġpregn": 2466,
      "Ġroll": 2467,
      "ortant": 2468,
      "Ġproud": 2469,
      "Ġjoke": 2470,
      "Ġgroup": 2471,
      "shit": 2472,
      "Ġ50": 2473,
      "aged": 2474,
      "Ġlevel": 2475,
      "Ġputting": 2476,
      "Ġvers": 2477,
      "Ġdisapp": 2478,
      "Ġquite": 2479,
      "lier": 2480,
      "life": 2481,
      "Ġthoughts": 2482,
      "Ġmommy": 2483,
      "Ġbreath": 2484,
      "Ġwarm": 2485,
      "Ġbasically": 2486,
      "Ġboi": 2487,
      "Ġcompet": 2488,
      "Ġcreepy": 2489,
      "Ġdecent": 2490,
      "Ġzero": 2491,
      "Ġsnow": 2492,
      "Ġvoting": 2493,
      "iiii": 2494,
      "gram": 2495,
      "Ġdaily": 2496,
      "Ġimpress": 2497,
      "Ġregard": 2498,
      "Ġsimp": 2499,
      "Ġdraw": 2500,
      "ussy": 2501,
      "Ġattack": 2502,
      "Ġavail": 2503,
      "Ġ2016": 2504,
      "Ġsnapchat": 2505,
      "Ġobvious": 2506,
      "series": 2507,
      "Ġnervous": 2508,
      "Ġdirect": 2509,
      "levant": 2510,
      "Ġenglish": 2511,
      "Ġpolicy": 2512,
      "Ġinternet": 2513,
      "nesday": 2514,
      "Ġlaugh": 2515,
      "worldseries": 2516,
      "Ġhistory": 2517,
      "Ġclothes": 2518,
      "Ġweren": 2519,
      "Ġpumpkin": 2520,
      "Ġcongrats": 2521,
      "aign": 2522,
      "bu": 2523,
      "bor": 2524,
      "bow": 2525,
      "care": 2526,
      "da": 2527,
      "don": 2528,
      "ey": 2529,
      "ged": 2530,
      "hn": 2531,
      "hind": 2532,
      "iot": 2533,
      "iol": 2534,
      "ken": 2535,
      "night": 2536,
      "ti": 2537,
      "to": 2538,
      "uary": 2539,
      "Ġtit": 2540,
      "Ġtar": 2541,
      "Ġtired": 2542,
      "Ġaut": 2543,
      "Ġach": 2544,
      "Ġsen": 2545,
      "Ġsis": 2546,
      "Ġwake": 2547,
      "Ġwise": 2548,
      "Ġweak": 2549,
      "inal": 2550,
      "Ġbes": 2551,
      "Ġbull": 2552,
      "Ġbody": 2553,
      "Ġbible": 2554,
      "Ġbio": 2555,
      "Ġbunch": 2556,
      "Ġmut": 2557,
      "Ġmath": 2558,
      "Ġhy": 2559,
      "Ġhes": 2560,
      "Ġhus": 2561,
      "Ġhous": 2562,
      "Ġhol": 2563,
      "Ġdan": 2564,
      "Ġdame": 2565,
      "Ġdig": 2566,
      "Ġdue": 2567,
      "Ġdang": 2568,
      "Ġcats": 2569,
      "Ġcav": 2570,
      "Ġfal": 2571,
      "Ġfield": 2572,
      "ork": 2573,
      "Ġnick": 2574,
      "ency": 2575,
      "Ġpot": 2576,
      "Ġpics": 2577,
      "Ġpussy": 2578,
      "sts": 2579,
      "itive": 2580,
      "Ġobs": 2581,
      "Ġitem": 2582,
      "ott": 2583,
      "otect": 2584,
      "oms": 2585,
      "Ġbel": 2586,
      "Ġbey": 2587,
      "Ġonline": 2588,
      "Ġliber": 2589,
      "Ġjk": 2590,
      "Ġju": 2591,
      "Ġjesus": 2592,
      "ars": 2593,
      "Ġste": 2594,
      "Ġshift": 2595,
      "Ġloved": 2596,
      "Ġrom": 2597,
      "Ġris": 2598,
      "Ġram": 2599,
      "Ġrough": 2600,
      "vern": 2601,
      "verse": 2602,
      "Ġken": 2603,
      "Ġneither": 2604,
      "Ġgovern": 2605,
      "ops": 2606,
      "though": 2607,
      "Ġate": 2608,
      "Ġasf": 2609,
      "Ġarea": 2610,
      "roll": 2611,
      "earch": 2612,
      "ppy": 2613,
      "Ġsudd": 2614,
      "Ġmod": 2615,
      "under": 2616,
      "using": 2617,
      "Ġ21": 2618,
      "Ġ25": 2619,
      "ained": 2620,
      "riend": 2621,
      "Ġconvers": 2622,
      "Ġshits": 2623,
      "Ġseat": 2624,
      "Ġsell": 2625,
      "Ġunf": 2626,
      "Ġtex": 2627,
      "Ġoffice": 2628,
      "Ġblame": 2629,
      "Ġprogram": 2630,
      "Ġlmaoooo": 2631,
      "Ġlmaooo": 2632,
      "Ġplayo": 2633,
      "play": 2634,
      "ploy": 2635,
      "Ġscary": 2636,
      "Ġscream": 2637,
      "Ġmission": 2638,
      "Ġarm": 2639,
      "osh": 2640,
      "Ġidc": 2641,
      "Ġdidnt": 2642,
      "Ġnights": 2643,
      "Ġroad": 2644,
      "Ġjohn": 2645,
      "Ġgrow": 2646,
      "Ġground": 2647,
      "aaa": 2648,
      "000": 2649,
      "Ġemma": 2650,
      "Ġrealize": 2651,
      "Ġthru": 2652,
      "Ġkidding": 2653,
      "Ġending": 2654,
      "Ġended": 2655,
      "Ġhello": 2656,
      "Ġ70": 2657,
      "Ġrecently": 2658,
      "Ġmarried": 2659,
      "Ġbox": 2660,
      "Ġboat": 2661,
      "Ġlazy": 2662,
      "Ġearlier": 2663,
      "Ġglass": 2664,
      "Ġwalking": 2665,
      "Ġconfused": 2666,
      "Ġconfidence": 2667,
      "Ġchecked": 2668,
      "Ġsneak": 2669,
      "Ġhurts": 2670,
      "Ġtyp": 2671,
      "Ġbooks": 2672,
      "Ġfreaking": 2673,
      "Ġdropped": 2674,
      "gery": 2675,
      "Ġimportant": 2676,
      "Ġstrugg": 2677,
      "bron": 2678,
      "Ġshoes": 2679,
      "Ġsurgery": 2680,
      "Ġattention": 2681,
      "Ġeast": 2682,
      "Ġturned": 2683,
      "Ġgiven": 2684,
      "Ġgives": 2685,
      "Ġinfl": 2686,
      "Ġvideos": 2687,
      "Ġwednesday": 2688,
      "Ġjeff": 2689,
      "Ġcostume": 2690,
      "Ġclearly": 2691,
      "Ġprivate": 2692,
      "Ġhmmm": 2693,
      "rupt": 2694,
      "Ġcampaign": 2695,
      "Ġopinion": 2696,
      "Ġdiscuss": 2697,
      "Ġbuddy": 2698,
      "Ġscene": 2699,
      "Ġcurrently": 2700,
      "Ġwindow": 2701,
      "Ġstaff": 2702,
      "Ġpissed": 2703,
      "Ġsummer": 2704,
      "Ġcloser": 2705,
      "Ġplatform": 2706,
      "Ġcelebr": 2707,
      "selves": 2708,
      "Ġfloor": 2709,
      "Ġmurder": 2710,
      "Ġversion": 2711,
      "Ġavailable": 2712,
      "Ġobviously": 2713,
      "Ġhusband": 2714,
      "Ġsudden": 2715,
      "\".": 2716,
      "))": 2717,
      "aim": 2718,
      "bon": 2719,
      "bum": 2720,
      "boy": 2721,
      "cu": 2722,
      "col": 2723,
      "did": 2724,
      "dra": 2725,
      "het": 2726,
      "ife": 2727,
      "iod": 2728,
      "ives": 2729,
      "mb": 2730,
      "mp": 2731,
      "mart": 2732,
      "ove": 2733,
      "oint": 2734,
      "que": 2735,
      "uro": 2736,
      "vp": 2737,
      "wing": 2738,
      "wards": 2739,
      "yan": 2740,
      "Ġtm": 2741,
      "Ġtie": 2742,
      "Ġtag": 2743,
      "Ġtears": 2744,
      "Ġight": 2745,
      "Ġice": 2746,
      "Ġiphone": 2747,
      "Ġari": 2748,
      "Ġsil": 2749,
      "Ġsix": 2750,
      "Ġsooo": 2751,
      "oul": 2752,
      "Ġbf": 2753,
      "Ġbs": 2754,
      "Ġbow": 2755,
      "Ġbuck": 2756,
      "Ġmill": 2757,
      "Ġmass": 2758,
      "ern": 2759,
      "ergy": 2760,
      "Ġhat": 2761,
      "Ġlas": 2762,
      "Ġlem": 2763,
      "Ġdance": 2764,
      "Ġcs": 2765,
      "Ġcas": 2766,
      "Ġcaught": 2767,
      "Ġcult": 2768,
      "ator": 2769,
      "Ġtoe": 2770,
      "Ġnast": 2771,
      "Ġpit": 2772,
      "Ġpool": 2773,
      "style": 2774,
      "ites": 2775,
      "eth": 2776,
      "ots": 2777,
      "ishing": 2778,
      "Ġbehind": 2779,
      "lem": 2780,
      "Ġlikes": 2781,
      "Ġiss": 2782,
      "ari": 2783,
      "arm": 2784,
      "Ġstom": 2785,
      "Ġstage": 2786,
      "Ġstyle": 2787,
      "Ġstfu": 2788,
      "Ġshare": 2789,
      "Ġran": 2790,
      "Ġrip": 2791,
      "Ġsox": 2792,
      "Ġsold": 2793,
      "Ġbutter": 2794,
      "ico": 2795,
      "icul": 2796,
      "Ġtrou": 2797,
      "Ġatl": 2798,
      "Ġasian": 2799,
      "Ġknock": 2800,
      "Ġchall": 2801,
      "Ġchamp": 2802,
      "Ġchap": 2803,
      "Ġchoose": 2804,
      "Ġfran": 2805,
      "Ġframe": 2806,
      "Ġworse": 2807,
      "Ġknown": 2808,
      "Ġmoon": 2809,
      "Ġmoved": 2810,
      "Ġgotten": 2811,
      "ility": 2812,
      "Ġhowever": 2813,
      "Ġorig": 2814,
      "Ġmach": 2815,
      "Ġwhenever": 2816,
      "umin": 2817,
      "Ġ24": 2818,
      "Ġ28": 2819,
      "auce": 2820,
      "ains": 2821,
      "Ġcomfortable": 2822,
      "Ġvine": 2823,
      "Ġexist": 2824,
      "ffic": 2825,
      "Ġspace": 2826,
      "Ġunit": 2827,
      "Ġclock": 2828,
      "Ġclaim": 2829,
      "Ġscare": 2830,
      "Ġmissing": 2831,
      "istic": 2832,
      "Ġmakeup": 2833,
      "Ġactual": 2834,
      "Ġsmo": 2835,
      "Ġsmart": 2836,
      "Ġideas": 2837,
      "Ġnaw": 2838,
      "Ġrob": 2839,
      "Ġprices": 2840,
      "Ġproof": 2841,
      "Ġprotect": 2842,
      "Ġkelly": 2843,
      "Ġawww": 2844,
      "Ġenergy": 2845,
      "Ġphys": 2846,
      "Ġrap": 2847,
      "inton": 2848,
      "ages": 2849,
      "yyy": 2850,
      "Ġwrote": 2851,
      "Ġswe": 2852,
      "Ġserv": 2853,
      "Ġreality": 2854,
      "Ġbiggest": 2855,
      "mmmm": 2856,
      "Ġhelped": 2857,
      "Ġdefense": 2858,
      "Ġacross": 2859,
      "Ġdisg": 2860,
      "Ġflight": 2861,
      "Ġkeeping": 2862,
      "Ġminute": 2863,
      "Ġxd": 2864,
      "Ġperform": 2865,
      "Ġperiod": 2866,
      "Ġstayed": 2867,
      "Ġbasket": 2868,
      "Ġtweeting": 2869,
      "Ġheadphone": 2870,
      "Ġcomputer": 2871,
      "ache": 2872,
      "Ġdriving": 2873,
      "Ġlistened": 2874,
      "Ġtexted": 2875,
      "Ġwalmart": 2876,
      "Ġaccident": 2877,
      "Ġevil": 2878,
      "Ġquestions": 2879,
      "Ġpair": 2880,
      "Ġdaddy": 2881,
      "Ġdrag": 2882,
      "ertain": 2883,
      "Ġinfo": 2884,
      "Ġterm": 2885,
      "Ġincl": 2886,
      "Ġlowkey": 2887,
      "Ġcorrect": 2888,
      "Ġspec": 2889,
      "Ġtravel": 2890,
      "ipping": 2891,
      "Ġlearned": 2892,
      "Ġbench": 2893,
      "Ġburrit": 2894,
      "Ġoption": 2895,
      "Ġrespond": 2896,
      "trump": 2897,
      "uesday": 2898,
      "Ġstreet": 2899,
      "Ġopinions": 2900,
      "Ġpolitics": 2901,
      "Ġcredit": 2902,
      "Ġgarb": 2903,
      "Ġupdate": 2904,
      "Ġturkey": 2905,
      "Ġtomato": 2906,
      "Ġargument": 2907,
      "Ġcompletely": 2908,
      "Ġcommunity": 2909,
      "Ġtrolls": 2910,
      "Ġhmu": 2911,
      "Ġreligion": 2912,
      "Ġconsidered": 2913,
      "Ġconnect": 2914,
      "Ġcavs": 2915,
      "Ġstruggle": 2916,
      "Ġnasty": 2917,
      "Ġbasketball": 2918,
      "12": 2919,
      ":)": 2920,
      "ald": 2921,
      "back": 2922,
      "bby": 2923,
      "cre": 2924,
      "cing": 2925,
      "cent": 2926,
      "cus": 2927,
      "cci": 2928,
      "di": 2929,
      "do": 2930,
      "ez": 2931,
      "fast": 2932,
      "friend": 2933,
      "ham": 2934,
      "hal": 2935,
      "hood": 2936,
      "iam": 2937,
      "iately": 2938,
      "ji": 2939,
      "list": 2940,
      "nna": 2941,
      "ob": 2942,
      "of": 2943,
      "oh": 2944,
      "ral": 2945,
      "rop": 2946,
      "rass": 2947,
      "rict": 2948,
      "tles": 2949,
      "uc": 2950,
      "uise": 2951,
      "vid": 2952,
      "Ġtatt": 2953,
      "Ġtuesday": 2954,
      "Ġiow": 2955,
      "Ġios": 2956,
      "Ġapr": 2957,
      "Ġsea": 2958,
      "Ġsam": 2959,
      "Ġwall": 2960,
      "Ġbust": 2961,
      "Ġbday": 2962,
      "Ġband": 2963,
      "Ġbour": 2964,
      "Ġbother": 2965,
      "Ġbattle": 2966,
      "Ġmama": 2967,
      "Ġmvp": 2968,
      "Ġhay": 2969,
      "Ġhook": 2970,
      "Ġhide": 2971,
      "ony": 2972,
      "Ġly": 2973,
      "reed": 2974,
      "Ġdu": 2975,
      "Ġdom": 2976,
      "Ġdak": 2977,
      "Ġdunk": 2978,
      "Ġcash": 2979,
      "Ġcertain": 2980,
      "Ġfi": 2981,
      "Ġfed": 2982,
      "Ġgoo": 2983,
      "Ġgym": 2984,
      "Ġgender": 2985,
      "Ġtor": 2986,
      "orant": 2987,
      "Ġnames": 2988,
      "Ġyoutu": 2989,
      "Ġpitch": 2990,
      "Ġpush": 2991,
      "Ġooo": 2992,
      "Ġang": 2993,
      "Ġanim": 2994,
      "Ġitself": 2995,
      "Ġittt": 2996,
      "oting": 2997,
      "eaking": 2998,
      "Ġhah": 2999,
      "ison": 3000,
      "Ġinside": 3001,
      "Ġeur": 3002,
      "ased": 3003,
      "lex": 3004,
      "Ġliz": 3005,
      "Ġlived": 3006,
      "Ġjer": 3007,
      "Ġjus": 3008,
      "Ġjane": 3009,
      "Ġstock": 3010,
      "Ġstories": 3011,
      "idge": 3012,
      "Ġreach": 3013,
      "Ġrelevant": 3014,
      "Ġkd": 3015,
      "Ġkiss": 3016,
      "imate": 3017,
      "Ġneigh": 3018,
      "Ġtrack": 3019,
      "then": 3020,
      "Ġash": 3021,
      "Ġchat": 3022,
      "Ġchic": 3023,
      "Ġchip": 3024,
      "Ġcheap": 3025,
      "urb": 3026,
      "Ġabt": 3027,
      "Ġabove": 3028,
      "Ġalter": 3029,
      "Ġalge": 3030,
      "Ġalbum": 3031,
      "Ġsuc": 3032,
      "Ġsusp": 3033,
      "antly": 3034,
      "ilt": 3035,
      "atest": 3036,
      "Ġdeath": 3037,
      "ief": 3038,
      "iest": 3039,
      "Ġexam": 3040,
      "ries": 3041,
      "rick": 3042,
      "Ġ16": 3043,
      "indians": 3044,
      "Ġconc": 3045,
      "Ġspin": 3046,
      "Ġspeaking": 3047,
      "Ġseats": 3048,
      "aren": 3049,
      "Ġuncom": 3050,
      "Ġimmed": 3051,
      "Ġclinton": 3052,
      "Ġoffer": 3053,
      "Ġagreed": 3054,
      "eels": 3055,
      "Ġusa": 3056,
      "Ġtrynna": 3057,
      "Ġarri": 3058,
      "Ġassume": 3059,
      "Ġprin": 3060,
      "Ġshowing": 3061,
      "Ġfeed": 3062,
      "Ġraised": 3063,
      "Ġlebron": 3064,
      "Ġholy": 3065,
      "cons": 3066,
      "like": 3067,
      "Ġfinding": 3068,
      "Ġmins": 3069,
      "Ġmonday": 3070,
      "Ġ80": 3071,
      "ogra": 3072,
      "Ġclassic": 3073,
      "Ġpersonally": 3074,
      "Ġhahahahaha": 3075,
      "Ġrelease": 3076,
      "Ġdecide": 3077,
      "Ġdecision": 3078,
      "Ġexciting": 3079,
      "Ġboys": 3080,
      "Ġedited": 3081,
      "Ġpolice": 3082,
      "Ġfeelings": 3083,
      "Ġmidter": 3084,
      "Ġdropping": 3085,
      "Ġfollowed": 3086,
      "Ġfollowers": 3087,
      "grade": 3088,
      "Ġdaw": 3089,
      "Ġsinging": 3090,
      "Ġbeach": 3091,
      "Ġinstall": 3092,
      "Ġmental": 3093,
      "Ġstrong": 3094,
      "Ġseconds": 3095,
      "Ġpassed": 3096,
      "ivity": 3097,
      "Ġturns": 3098,
      "Ġbreakfast": 3099,
      "Ġborn": 3100,
      "uuu": 3101,
      "Ġlegal": 3102,
      "Ġshots": 3103,
      "Ġstars": 3104,
      "Ġexpected": 3105,
      "Ġclean": 3106,
      "Ġtraffic": 3107,
      "Ġdoubt": 3108,
      "Ġdepends": 3109,
      "Ġparental": 3110,
      "hole": 3111,
      "Ġbene": 3112,
      "Ġoptions": 3113,
      "Ġtraining": 3114,
      "Ġrespon": 3115,
      "Ġprior": 3116,
      "Ġelect": 3117,
      "Ġelection": 3118,
      "Ġsexy": 3119,
      "Ġrepeat": 3120,
      "Ġgeneral": 3121,
      "Ġhuman": 3122,
      "Ġcompany": 3123,
      "Ġpatient": 3124,
      "Ġhorri": 3125,
      "Ġchristmas": 3126,
      "Ġgotchu": 3127,
      "Ġwritten": 3128,
      "Ġcolor": 3129,
      "Ġapartment": 3130,
      "Ġafford": 3131,
      "Ġcousin": 3132,
      "Ġsuggest": 3133,
      "barrass": 3134,
      "Ġlouis": 3135,
      "Ġdeliver": 3136,
      "ournal": 3137,
      "Ġpregnant": 3138,
      "Ġbullshit": 3139,
      "Ġholiday": 3140,
      "Ġbeyond": 3141,
      "Ġplayoffs": 3142,
      "Ġlemme": 3143,
      "Ġissue": 3144,
      "iculous": 3145,
      "Ġchallen": 3146,
      "Ġgarbage": 3147,
      "Ġiowa": 3148,
      "Ġbourbon": 3149,
      "Ġyoutube": 3150,
      "Ġeurope": 3151,
      "Ġalgebra": 3152,
      "Ġimmediately": 3153,
      "),": 3154,
      ").": 3155,
      "100": 3156,
      "45": 3157,
      "99": 3158,
      ":/": 3159,
      "ax": 3160,
      "az": 3161,
      "apt": 3162,
      "bur": 3163,
      "cs": 3164,
      "cious": 3165,
      "cubs": 3166,
      "dr": 3167,
      "for": 3168,
      "gress": 3169,
      "hor": 3170,
      "hope": 3171,
      "ique": 3172,
      "lit": 3173,
      "lay": 3174,
      "may": 3175,
      "oom": 3176,
      "oid": 3177,
      "ollow": 3178,
      "ration": 3179,
      "rated": 3180,
      "sy": 3181,
      "ux": 3182,
      "ugs": 3183,
      "va": 3184,
      "vill": 3185,
      "wd": 3186,
      "ya": 3187,
      "ych": 3188,
      "ze": 3189,
      "zi": 3190,
      "zen": 3191,
      "Ġ+": 3192,
      "Ġ!!!": 3193,
      "Ġtin": 3194,
      "Ġten": 3195,
      "Ġtaught": 3196,
      "Ġiw": 3197,
      "Ġian": 3198,
      "Ġaye": 3199,
      "Ġsi": 3200,
      "Ġsan": 3201,
      "Ġsoo": 3202,
      "Ġsle": 3203,
      "Ġsep": 3204,
      "Ġsain": 3205,
      "Ġsand": 3206,
      "Ġsets": 3207,
      "Ġsens": 3208,
      "Ġsauce": 3209,
      "Ġwat": 3210,
      "Ġwine": 3211,
      "Ġwings": 3212,
      "Ġwwe": 3213,
      "Ġwife": 3214,
      "inate": 3215,
      "Ġmic": 3216,
      "Ġmum": 3217,
      "Ġmist": 3218,
      "erence": 3219,
      "Ġhoney": 3220,
      "Ġhired": 3221,
      "Ġlar": 3222,
      "real": 3223,
      "Ġdar": 3224,
      "Ġdry": 3225,
      "Ġdish": 3226,
      "Ġyas": 3227,
      "Ġcow": 3228,
      "Ġcart": 3229,
      "atic": 3230,
      "Ġfing": 3231,
      "Ġfem": 3232,
      "orate": 3233,
      "orge": 3234,
      "Ġnational": 3235,
      "Ġpap": 3236,
      "Ġpunch": 3237,
      "Ġpier": 3238,
      "Ġporn": 3239,
      "sters": 3240,
      "Ġol": 3241,
      "Ġow": 3242,
      "Ġant": 3243,
      "oty": 3244,
      "vest": 3245,
      "isco": 3246,
      "Ġuk": 3247,
      "Ġbegin": 3248,
      "Ġinvest": 3249,
      "ution": 3250,
      "Ġlim": 3251,
      "Ġlip": 3252,
      "Ġmeat": 3253,
      "change": 3254,
      "Ġjal": 3255,
      "Ġjim": 3256,
      "Ġjournal": 3257,
      "Ġsteel": 3258,
      "Ġstore": 3259,
      "Ġshir": 3260,
      "Ġshirt": 3261,
      "Ġshaw": 3262,
      "Ġlos": 3263,
      "Ġloves": 3264,
      "Ġreview": 3265,
      "Ġrum": 3266,
      "Ġrice": 3267,
      "Ġrub": 3268,
      "Ġrude": 3269,
      "Ġruss": 3270,
      "Ġwelp": 3271,
      "Ġking": 3272,
      "Ġsolo": 3273,
      "ican": 3274,
      "icious": 3275,
      "icated": 3276,
      "ading": 3277,
      "ades": 3278,
      "imp": 3279,
      "Ġnote": 3280,
      "Ġnotes": 3281,
      "Ġgosh": 3282,
      "Ġtruck": 3283,
      "ctor": 3284,
      "cture": 3285,
      "Ġchad": 3286,
      "Ġchuck": 3287,
      "Ġchann": 3288,
      "room": 3289,
      "cember": 3290,
      "pping": 3291,
      "Ġalthough": 3292,
      "Ġmob": 3293,
      "Ġpls": 3294,
      "Ġplz": 3295,
      "Ġpleas": 3296,
      "Ġsomewhat": 3297,
      "Ġsomehow": 3298,
      "Ġmain": 3299,
      "Ġmail": 3300,
      "ussell": 3301,
      "uckwith": 3302,
      "Ġdeg": 3303,
      "Ġdemo": 3304,
      "Ġdecember": 3305,
      "Ġ26": 3306,
      "gel": 3307,
      "aine": 3308,
      "Ġanybody": 3309,
      "Ġvamp": 3310,
      "Ġviol": 3311,
      "Ġexamp": 3312,
      "rib": 3313,
      "Ġ17": 3314,
      "Ġspent": 3315,
      "Ġspend": 3316,
      "Ġmanage": 3317,
      "Ġeveryday": 3318,
      "Ġsaving": 3319,
      "Ġsaved": 3320,
      "Ġimm": 3321,
      "Ġcoc": 3322,
      "Ġthemselves": 3323,
      "Ġfucks": 3324,
      "Ġoffering": 3325,
      "Ġbless": 3326,
      "Ġrights": 3327,
      "Ġbrought": 3328,
      "Ġscr": 3329,
      "Ġscore": 3330,
      "Ġwax": 3331,
      "Ġwaking": 3332,
      "Ġletting": 3333,
      "Ġprefer": 3334,
      "Ġarms": 3335,
      "Ġgreatest": 3336,
      "Ġtalent": 3337,
      "Ġasshole": 3338,
      "ups": 3339,
      "......": 3340,
      "Ġawe": 3341,
      "Ġawh": 3342,
      "Ġaware": 3343,
      "Ġengine": 3344,
      "Ġfeet": 3345,
      "Ġdamage": 3346,
      "akes": 3347,
      "ify": 3348,
      "Ġadmit": 3349,
      "Ġadapt": 3350,
      "tag": 3351,
      "Ġgrab": 3352,
      "Ġgrind": 3353,
      "Ġgrade": 3354,
      "Ġgrilled": 3355,
      "itched": 3356,
      "she": 3357,
      "Ġwinning": 3358,
      "ager": 3359,
      "agree": 3360,
      "geta": 3361,
      "Ġfinals": 3362,
      "Ġhoes": 3363,
      "Ġemploy": 3364,
      "Ġembarrass": 3365,
      "Ġyah": 3366,
      "Ġslide": 3367,
      "Ġflag": 3368,
      "Ġkeeps": 3369,
      "Ġlonger": 3370,
      "Ġdiv": 3371,
      "gging": 3372,
      "Ġhits": 3373,
      "Ġbasic": 3374,
      "Ġheaded": 3375,
      "Ġbabies": 3376,
      "?!?": 3377,
      "ogn": 3378,
      "Ġmarket": 3379,
      "Ġsuppose": 3380,
      "ressing": 3381,
      "Ġhighlight": 3382,
      "Ġclasses": 3383,
      "Ġkilling": 3384,
      "phones": 3385,
      "Ġwalked": 3386,
      "Ġowned": 3387,
      "Ġconference": 3388,
      "Ġlately": 3389,
      "Ġstudent": 3390,
      "Ġstudying": 3391,
      "Ġdesign": 3392,
      "Ġsyrup": 3393,
      "Ġlmfaoooo": 3394,
      "Ġsky": 3395,
      "Ġhug": 3396,
      "Ġmentions": 3397,
      "Ġreturn": 3398,
      "Ġdifference": 3399,
      "Ġattend": 3400,
      "Ġparking": 3401,
      "Ġepisodes": 3402,
      "Ġchildren": 3403,
      "Ġholding": 3404,
      "work": 3405,
      "Ġfighting": 3406,
      "Ġinsul": 3407,
      "Ġfalling": 3408,
      "Ġadded": 3409,
      "Ġsolid": 3410,
      "aughter": 3411,
      "Ġannoyed": 3412,
      "Ġnerd": 3413,
      "Ġreminds": 3414,
      "Ġsignal": 3415,
      "Ġdeter": 3416,
      "Ġdetail": 3417,
      "Ġreplace": 3418,
      "Ġexpensive": 3419,
      "Ġteacher": 3420,
      "Ġfixed": 3421,
      "Ġmajority": 3422,
      "Ġignorant": 3423,
      "Ġoppos": 3424,
      "Ġentire": 3425,
      "Ġlawy": 3426,
      "Ġshopping": 3427,
      "Ġpiece": 3428,
      "Ġridiculous": 3429,
      "Ġedmund": 3430,
      "Ġsalty": 3431,
      "Ġpetty": 3432,
      "Ġemotional": 3433,
      "Ġwrestling": 3434,
      "Ġdeny": 3435,
      "Ġapplying": 3436,
      "Ġeventually": 3437,
      "Ġterrible": 3438,
      "Ġnyc": 3439,
      "Ġprofess": 3440,
      "Ġnails": 3441,
      "2016": 3442,
      "Ġcustomer": 3443,
      "Ġgunna": 3444,
      "Ġjanuary": 3445,
      "Ġpressure": 3446,
      "Ġsupporting": 3447,
      "Ġportland": 3448,
      "Ġtruly": 3449,
      "Ġbreathe": 3450,
      "Ġfalse": 3451,
      "Ġitems": 3452,
      "Ġunfollow": 3453,
      "Ġaccidentally": 3454,
      "Ġapril": 3455,
      "ograph": 3456,
      "Ġresponse": 3457,
      "ville": 3458,
      "Ġslept": 3459,
      "Ġsaint": 3460,
      "Ġshawty": 3461,
      "Ġchannel": 3462,
      "!\"": 3463,
      "40": 3464,
      "ael": 3465,
      "bl": 3466,
      "boo": 3467,
      "bone": 3468,
      "bro": 3469,
      "bie": 3470,
      "bers": 3471,
      "bling": 3472,
      "cl": 3473,
      "cut": 3474,
      "cul": 3475,
      "cip": 3476,
      "eed": 3477,
      "fh": 3478,
      "fr": 3479,
      "fits": 3480,
      "git": 3481,
      "gment": 3482,
      "hy": 3483,
      "hip": 3484,
      "iet": 3485,
      "ius": 3486,
      "ki": 3487,
      "lat": 3488,
      "louch": 3489,
      "met": 3490,
      "oc": 3491,
      "pm": 3492,
      "rw": 3493,
      "uin": 3494,
      "uine": 3495,
      "uence": 3496,
      "vo": 3497,
      "vs": 3498,
      "vil": 3499,
      "vail": 3500,
      "wa": 3501,
      "win": 3502,
      "war": 3503,
      "wood": 3504,
      "wks": 3505,
      "wich": 3506,
      "yr": 3507,
      "yea": 3508,
      "yal": 3509,
      "zer": 3510,
      "Ġ)": 3511,
      "Ġess": 3512,
      "Ġ???": 3513,
      "Ġily": 3514,
      "Ġicon": 3515,
      "Ġai": 3516,
      "Ġaver": 3517,
      "Ġaight": 3518,
      "Ġahh": 3519,
      "Ġayy": 3520,
      "Ġsar": 3521,
      "Ġsir": 3522,
      "Ġsess": 3523,
      "Ġsite": 3524,
      "Ġsooooo": 3525,
      "Ġsister": 3526,
      "Ġwood": 3527,
      "inese": 3528,
      "ouston": 3529,
      "Ġbom": 3530,
      "Ġbone": 3531,
      "Ġbath": 3532,
      "Ġmat": 3533,
      "erg": 3534,
      "Ġhon": 3535,
      "Ġhating": 3536,
      "Ġhunch": 3537,
      "Ġhouston": 3538,
      "ontf": 3539,
      "Ġlat": 3540,
      "Ġlool": 3541,
      "Ġloud": 3542,
      "Ġdum": 3543,
      "Ġdeep": 3544,
      "Ġyu": 3545,
      "Ġyee": 3546,
      "Ġcam": 3547,
      "Ġcir": 3548,
      "Ġcab": 3549,
      "Ġcast": 3550,
      "Ġcubb": 3551,
      "Ġfear": 3552,
      "Ġfive": 3553,
      "Ġfired": 3554,
      "Ġgs": 3555,
      "Ġgift": 3556,
      "Ġtoes": 3557,
      "Ġtoil": 3558,
      "lled": 3559,
      "Ġnut": 3560,
      "Ġnint": 3561,
      "ena": 3562,
      "Ġpill": 3563,
      "Ġpur": 3564,
      "Ġpatch": 3565,
      "Ġpage": 3566,
      "Ġpath": 3567,
      "str": 3568,
      "ito": 3569,
      "Ġoak": 3570,
      "Ġoper": 3571,
      "Ġocto": 3572,
      "Ġanx": 3573,
      "eapp": 3574,
      "eared": 3575,
      "Ġhabit": 3576,
      "ises": 3577,
      "Ġult": 3578,
      "Ġbeer": 3579,
      "Ġinhal": 3580,
      "asing": 3581,
      "americ": 3582,
      "Ġmeh": 3583,
      "Ġmegy": 3584,
      "che": 3585,
      "Ġjet": 3586,
      "Ġjumin": 3587,
      "arian": 3588,
      "Ġstream": 3589,
      "Ġstubb": 3590,
      "Ġsha": 3591,
      "Ġshock": 3592,
      "Ġlog": 3593,
      "Ġload": 3594,
      "sey": 3595,
      "Ġrema": 3596,
      "Ġrefer": 3597,
      "Ġrat": 3598,
      "Ġray": 3599,
      "Ġrout": 3600,
      "Ġrim": 3601,
      "Ġryan": 3602,
      "Ġrussell": 3603,
      "Ġweed": 3604,
      "Ġweep": 3605,
      "Ġko": 3606,
      "Ġkit": 3607,
      "ales": 3608,
      "alif": 3609,
      "alys": 3610,
      "Ġsoci": 3611,
      "Ġdoc": 3612,
      "Ġdod": 3613,
      "Ġdoors": 3614,
      "lying": 3615,
      "icing": 3616,
      "icle": 3617,
      "icate": 3618,
      "eech": 3619,
      "Ġnoticed": 3620,
      "Ġlolol": 3621,
      "Ġgoat": 3622,
      "irty": 3623,
      "Ġgettin": 3624,
      "ights": 3625,
      "ential": 3626,
      "Ġtri": 3627,
      "thew": 3628,
      "Ġwithin": 3629,
      "ionally": 3630,
      "Ġaside": 3631,
      "Ġchain": 3632,
      "Ġchina": 3633,
      "rog": 3634,
      "urance": 3635,
      "Ġfrust": 3636,
      "Ġnola": 3637,
      "pped": 3638,
      "Ġali": 3639,
      "Ġalarm": 3640,
      "Ġoutfit": 3641,
      "Ġplug": 3642,
      "endo": 3643,
      "Ġmax": 3644,
      "Ġmaine": 3645,
      "igue": 3646,
      "ushing": 3647,
      "ums": 3648,
      "ieve": 3649,
      "abi": 3650,
      "have": 3651,
      "hawks": 3652,
      "ands": 3653,
      "Ġcomment": 3654,
      "Ġcombin": 3655,
      "Ġanyways": 3656,
      "Ġanywhere": 3657,
      "Ġvie": 3658,
      "Ġvia": 3659,
      "Ġvict": 3660,
      "Ġvirt": 3661,
      "Ġvari": 3662,
      "Ġexce": 3663,
      "ria": 3664,
      "rike": 3665,
      "Ġ13": 3666,
      "sss": 3667,
      "Ġcond": 3668,
      "Ġconta": 3669,
      "Ġspo": 3670,
      "Ġspeech": 3671,
      "Ġnowhere": 3672,
      "Ġshitur": 3673,
      "rap": 3674,
      "Ġwhoa": 3675,
      "Ġsemi": 3676,
      "Ġuni": 3677,
      "Ġsao": 3678,
      "Ġwhyyyyy": 3679,
      "Ġcod": 3680,
      "Ġcos": 3681,
      "Ġcocon": 3682,
      "Ġoffs": 3683,
      "ission": 3684,
      "Ġblank": 3685,
      "Ġblessed": 3686,
      "plant": 3687,
      "Ġbru": 3688,
      "Ġbrut": 3689,
      "Ġbright": 3690,
      "Ġbrook": 3691,
      "Ġbrothers": 3692,
      "Ġbridge": 3693,
      "Ġscient": 3694,
      "Ġ35": 3695,
      "Ġgucci": 3696,
      "istry": 3697,
      "Ġprep": 3698,
      "Ġprevail": 3699,
      "Ġarrog": 3700,
      "Ġsmfh": 3701,
      "Ġident": 3702,
      "Ġidiot": 3703,
      "Ġhash": 3704,
      "Ġhasn": 3705,
      "........": 3706,
      "Ġrole": 3707,
      "Ġrose": 3708,
      "Ġroast": 3709,
      "Ġrooting": 3710,
      "Ġintense": 3711,
      "Ġafric": 3712,
      "Ġdrought": 3713,
      "Ġbroad": 3714,
      "Ġfel": 3715,
      "bec": 3716,
      "Ġjoe": 3717,
      "Ġjokes": 3718,
      "Ġadult": 3719,
      "ago": 3720,
      "Ġ(:": 3721,
      "gets": 3722,
      "Ġappear": 3723,
      "Ġfinal": 3724,
      "Ġfinna": 3725,
      "Ġswift": 3726,
      "Ġserving": 3727,
      "Ġbuilt": 3728,
      "Ġhelps": 3729,
      "Ġfox": 3730,
      "Ġomw": 3731,
      "aps": 3732,
      "morning": 3733,
      "Ġ--": 3734,
      "gged": 3735,
      "ggie": 3736,
      "Ġhitting": 3737,
      "Ġmonit": 3738,
      "Ġxxx": 3739,
      "Ġresearch": 3740,
      "Ġheadache": 3741,
      "Ġheadphones": 3742,
      "Ġ81": 3743,
      "Ġcarey": 3744,
      "Ġcareer": 3745,
      "Ġcareful": 3746,
      "Ġfamous": 3747,
      "Ġrecogn": 3748,
      "every": 3749,
      "Ġmarvel": 3750,
      "Ġcars": 3751,
      "Ġcompared": 3752,
      "Ġpersonal": 3753,
      "Ġremembered": 3754,
      "Ġcrew": 3755,
      "Ġpoints": 3756,
      "Ġdrivers": 3757,
      "Ġpicked": 3758,
      "Ġmostly": 3759,
      "Ġ99": 3760,
      "Ġjobs": 3761,
      "Ġdecided": 3762,
      "Ġboyfriend": 3763,
      "Ġconfir": 3764,
      "Ġconfusing": 3765,
      "Ġedge": 3766,
      "Ġeasily": 3767,
      "Ġeasier": 3768,
      "Ġtyler": 3769,
      "Ġsyn": 3770,
      "Ġfavour": 3771,
      "Ġsadly": 3772,
      "Ġevidence": 3773,
      "Ġfollowing": 3774,
      "Ġimprove": 3775,
      "Ġregret": 3776,
      "Ġregular": 3777,
      "Ġfacebook": 3778,
      "Ġgenuine": 3779,
      "Ġindust": 3780,
      "Ġdrake": 3781,
      "Ġhotel": 3782,
      "eeeeee": 3783,
      "Ġ.....": 3784,
      "Ġcatching": 3785,
      "Ġinform": 3786,
      "Ġrestrict": 3787,
      "medontf": 3788,
      "Ġhalfway": 3789,
      "Ġchildish": 3790,
      "Ġposted": 3791,
      "Ġmessages": 3792,
      "Ġcorrupt": 3793,
      "Ġfilming": 3794,
      "nnnn": 3795,
      "Ġenjoyed": 3796,
      "Ġtrees": 3797,
      "Ġsetting": 3798,
      "Ġcomplaining": 3799,
      "Ġtaken": 3800,
      "Ġburning": 3801,
      "Ġhealthcare": 3802,
      "Ġcali": 3803,
      "Ġtransfer": 3804,
      "Ġtransplant": 3805,
      "Ġchoice": 3806,
      "Ġchocol": 3807,
      "Ġracism": 3808,
      "Ġpineapp": 3809,
      "Ġreplied": 3810,
      "Ġignore": 3811,
      "Ġperfectly": 3812,
      "Ġpolitical": 3813,
      "cessary": 3814,
      "ruction": 3815,
      "Ġdisturb": 3816,
      "Ġadvice": 3817,
      "Ġproducts": 3818,
      "____": 3819,
      "Ġscenes": 3820,
      "Ġswitching": 3821,
      "Ġfigured": 3822,
      "withher": 3823,
      "Ġpanic": 3824,
      "Ġharder": 3825,
      "Ġsticker": 3826,
      "Ġposition": 3827,
      "Ġpositive": 3828,
      "hereiam": 3829,
      "Ġsquad": 3830,
      "Ġconcern": 3831,
      "Ġdunno": 3832,
      "Ġfrozen": 3833,
      "Ġallowed": 3834,
      "Ġcritique": 3835,
      "Ġffx": 3836,
      "Ġnaturally": 3837,
      "Ġstatus": 3838,
      "Ġtechn": 3839,
      "Ġ:-)": 3840,
      "Ġemoji": 3841,
      "Ġjudgement": 3842,
      "written": 3843,
      "Ġmalicious": 3844,
      "Ġrodney": 3845,
      "Ġdollars": 3846,
      "Ġscripture": 3847,
      "Ġcompetition": 3848,
      "Ġsimple": 3849,
      "Ġlaughing": 3850,
      "build": 3851,
      "donald": 3852,
      "Ġtitle": 3853,
      "Ġachieve": 3854,
      "Ġsenior": 3855,
      "Ġbesides": 3856,
      "Ġhouses": 3857,
      "Ġobsessed": 3858,
      "Ġtexas": 3859,
      "Ġinfluence": 3860,
      "Ġdiscussion": 3861,
      "Ġtmrw": 3862,
      "Ġsilver": 3863,
      "Ġstomach": 3864,
      "Ġchampion": 3865,
      "Ġmachine": 3866,
      "Ġdisgust": 3867,
      "Ġburrito": 3868,
      "Ġtomatoes": 3869,
      "Ġtattoos": 3870,
      "Ġneighbor": 3871,
      "Ġchicago": 3872,
      "Ġaltern": 3873,
      "Ġsuccess": 3874,
      "Ġsuspended": 3875,
      "Ġconcert": 3876,
      "Ġuncomfortable": 3877,
      "Ġdawg": 3878,
      "Ġtiny": 3879,
      "Ġshirts": 3880,
      "uckwithmedontf": 3881,
      "Ġvampire": 3882,
      "Ġcocaine": 3883,
      "Ġflags": 3884,
      "Ġcubbies": 3885,
      "Ġtoilet": 3886,
      "Ġnintendo": 3887,
      "Ġmegyn": 3888,
      "Ġstubbed": 3889,
      "alysis": 3890,
      "Ġsociety": 3891,
      "Ġvictim": 3892,
      "Ġcontact": 3893,
      "Ġcoconut": 3894,
      "Ġchocolate": 3895,
      "hereiamwithher": 3896,
      "\",": 3897,
      "--": 3898,
      "25": 3899,
      "95": 3900,
      ":(": 3901,
      "aks": 3902,
      "afe": 3903,
      "bc": 3904,
      "bi": 3905,
      "bucks": 3906,
      "cra": 3907,
      "cake": 3908,
      "cles": 3909,
      "cuss": 3910,
      "dom": 3911,
      "dict": 3912,
      "dest": 3913,
      "fc": 3914,
      "fk": 3915,
      "fting": 3916,
      "fying": 3917,
      "fety": 3918,
      "ga": 3919,
      "hin": 3920,
      "hop": 3921,
      "hol": 3922,
      "hmm": 3923,
      "house": 3924,
      "hug": 3925,
      "ially": 3926,
      "iff": 3927,
      "ials": 3928,
      "iety": 3929,
      "je": 3930,
      "ju": 3931,
      "lin": 3932,
      "let": 3933,
      "look": 3934,
      "lock": 3935,
      "mpt": 3936,
      "nigg": 3937,
      "ox": 3938,
      "pan": 3939,
      "pir": 3940,
      "pose": 3941,
      "rc": 3942,
      "rry": 3943,
      "sur": 3944,
      "tm": 3945,
      "uit": 3946,
      "vis": 3947,
      "won": 3948,
      "was": 3949,
      "your": 3950,
      "Ġou": 3951,
      "Ġtab": 3952,
      "Ġtind": 3953,
      "Ġtires": 3954,
      "Ġauth": 3955,
      "Ġalex": 3956,
      "Ġthunder": 3957,
      "Ġss": 3958,
      "Ġsist": 3959,
      "Ġsize": 3960,
      "Ġsigh": 3961,
      "Ġsoooooo": 3962,
      "Ġsoul": 3963,
      "Ġwth": 3964,
      "ining": 3965,
      "inals": 3966,
      "Ġbub": 3967,
      "Ġbang": 3968,
      "Ġbird": 3969,
      "Ġbully": 3970,
      "Ġbank": 3971,
      "Ġbrick": 3972,
      "Ġmall": 3973,
      "Ġmeal": 3974,
      "Ġmother": 3975,
      "Ġmount": 3976,
      "erv": 3977,
      "erog": 3978,
      "Ġhen": 3979,
      "Ġhood": 3980,
      "Ġhump": 3981,
      "Ġland": 3982,
      "Ġlind": 3983,
      "Ġlines": 3984,
      "Ġtheory": 3985,
      "Ġdb": 3986,
      "Ġded": 3987,
      "Ġdall": 3988,
      "Ġdress": 3989,
      "Ġdudes": 3990,
      "Ġdirty": 3991,
      "Ġyork": 3992,
      "Ġcrib": 3993,
      "atory": 3994,
      "atives": 3995,
      "Ġfw": 3996,
      "Ġfill": 3997,
      "Ġgb": 3998,
      "Ġgf": 3999
    },
    "merges": [
      [
        "Ġ",
        "t"
      ],
      [
        "Ġ",
        "i"
      ],
      [
        "Ġ",
        "a"
      ],
      [
        "Ġt",
        "h"
      ],
      [
        "Ġ",
        "s"
      ],
      [
        "Ġ",
        "w"
      ],
      [
        "Ġ",
        "Ċ"
      ],
      [
        "i",
        "n"
      ],
      [
        "o",
        "u"
      ],
      [
        "Ġ",
        "b"
      ],
      [
        "Ġ",
        "m"
      ],
      [
        "e",
        "r"
      ],
      [
        "Ġ",
        "h"
      ],
      [
        "o",
        "n"
      ],
      [
        "Ġ",
        "l"
      ],
      [
        "r",
        "e"
      ],
      [
        "Ġth",
        "e"
      ],
      [
        "Ġ",
        "d"
      ],
      [
        "Ġ",
        "y"
      ],
      [
        "Ġ",
        "c"
      ],
      [
        "a",
        "t"
      ],
      [
        "in",
        "g"
      ],
      [
        "Ġ",
        "f"
      ],
      [
        "Ġ",
        "g"
      ],
      [
        "Ġt",
        "o"
      ],
      [
        "l",
        "l"
      ],
      [
        "o",
        "r"
      ],
      [
        "Ġ",
        "n"
      ],
      [
        "Ġy",
        "ou"
      ],
      [
        "a",
        "n"
      ],
      [
        "e",
        "n"
      ],
      [
        "Ġ",
        "p"
      ],
      [
        "s",
        "t"
      ],
      [
        "i",
        "t"
      ],
      [
        "Ġ",
        "o"
      ],
      [
        "e",
        "d"
      ],
      [
        "Ġa",
        "n"
      ],
      [
        "Ġi",
        "t"
      ],
      [
        "e",
        "s"
      ],
      [
        "a",
        "y"
      ],
      [
        "o",
        "w"
      ],
      [
        "e",
        "t"
      ],
      [
        "o",
        "t"
      ],
      [
        "o",
        "m"
      ],
      [
        "v",
        "e"
      ],
      [
        "Ġw",
        "h"
      ],
      [
        "e",
        "a"
      ],
      [
        "Ġh",
        "a"
      ],
      [
        "i",
        "s"
      ],
      [
        "o",
        "o"
      ],
      [
        "Ġ",
        "u"
      ],
      [
        "Ġan",
        "d"
      ],
      [
        ".",
        "."
      ],
      [
        "Ġb",
        "e"
      ],
      [
        "Ġi",
        "n"
      ],
      [
        "k",
        "e"
      ],
      [
        "Ġth",
        "at"
      ],
      [
        "Ġ",
        "on"
      ],
      [
        "Ġ",
        "e"
      ],
      [
        "'",
        "s"
      ],
      [
        "a",
        "s"
      ],
      [
        "'",
        "t"
      ],
      [
        "u",
        "t"
      ],
      [
        "Ġo",
        "f"
      ],
      [
        "a",
        "m"
      ],
      [
        "c",
        "k"
      ],
      [
        "l",
        "e"
      ],
      [
        "Ġm",
        "y"
      ],
      [
        "Ġl",
        "i"
      ],
      [
        "Ġi",
        "s"
      ],
      [
        "Ġm",
        "e"
      ],
      [
        "c",
        "h"
      ],
      [
        "g",
        "h"
      ],
      [
        "Ġ",
        "j"
      ],
      [
        "a",
        "r"
      ],
      [
        "Ġs",
        "t"
      ],
      [
        "Ġs",
        "h"
      ],
      [
        "i",
        "d"
      ],
      [
        "Ġl",
        "o"
      ],
      [
        "s",
        "e"
      ],
      [
        "Ġf",
        "or"
      ],
      [
        "Ġ",
        "re"
      ],
      [
        "l",
        "d"
      ],
      [
        "Ġ",
        "r"
      ],
      [
        "ou",
        "t"
      ],
      [
        "v",
        "er"
      ],
      [
        "Ġw",
        "e"
      ],
      [
        "Ġ",
        "k"
      ],
      [
        "a",
        "ll"
      ],
      [
        "a",
        "l"
      ],
      [
        "'",
        "m"
      ],
      [
        "Ġs",
        "o"
      ],
      [
        "Ġb",
        "ut"
      ],
      [
        "er",
        "e"
      ],
      [
        "Ġd",
        "o"
      ],
      [
        "l",
        "y"
      ],
      [
        "u",
        "st"
      ],
      [
        "Ġw",
        "as"
      ],
      [
        "Ġli",
        "ke"
      ],
      [
        "i",
        "c"
      ],
      [
        "gh",
        "t"
      ],
      [
        "!",
        "!"
      ],
      [
        "e",
        "e"
      ],
      [
        "a",
        "d"
      ],
      [
        "i",
        "ll"
      ],
      [
        "i",
        "m"
      ],
      [
        "Ġn",
        "e"
      ],
      [
        "Ġj",
        "ust"
      ],
      [
        "Ġha",
        "ve"
      ],
      [
        "Ġn",
        "ot"
      ],
      [
        "om",
        "e"
      ],
      [
        "Ġlo",
        "l"
      ],
      [
        "Ġg",
        "o"
      ],
      [
        "o",
        "p"
      ],
      [
        "it",
        "h"
      ],
      [
        "Ġh",
        "e"
      ],
      [
        "Ġth",
        "is"
      ],
      [
        "i",
        "r"
      ],
      [
        "Ġg",
        "et"
      ],
      [
        "ou",
        "ld"
      ],
      [
        "Ġu",
        "p"
      ],
      [
        "on",
        "e"
      ],
      [
        "Ġc",
        "an"
      ],
      [
        "i",
        "ght"
      ],
      [
        "en",
        "t"
      ],
      [
        "Ġt",
        "r"
      ],
      [
        "t",
        "h"
      ],
      [
        "Ġw",
        "ith"
      ],
      [
        "i",
        "on"
      ],
      [
        "all",
        "y"
      ],
      [
        "Ġa",
        "t"
      ],
      [
        "Ġwh",
        "at"
      ],
      [
        "c",
        "t"
      ],
      [
        "Ġa",
        "s"
      ],
      [
        "Ġa",
        "re"
      ],
      [
        "Ġthe",
        "y"
      ],
      [
        "Ġd",
        "on"
      ],
      [
        "Ġk",
        "n"
      ],
      [
        "Ġc",
        "h"
      ],
      [
        "r",
        "o"
      ],
      [
        "c",
        "e"
      ],
      [
        "u",
        "r"
      ],
      [
        "Ġf",
        "r"
      ],
      [
        "oo",
        "d"
      ],
      [
        "Ġn",
        "o"
      ],
      [
        "ea",
        "r"
      ],
      [
        "Ġyou",
        "r"
      ],
      [
        "Ġa",
        "b"
      ],
      [
        "Ġw",
        "or"
      ],
      [
        "..",
        "."
      ],
      [
        "Ġkn",
        "ow"
      ],
      [
        "t",
        "er"
      ],
      [
        "Ġi",
        "f"
      ],
      [
        "p",
        "p"
      ],
      [
        "Ġa",
        "l"
      ],
      [
        "Ġs",
        "u"
      ],
      [
        "Ġ",
        "out"
      ],
      [
        "Ġm",
        "o"
      ],
      [
        "Ġa",
        "ll"
      ],
      [
        "Ġp",
        "l"
      ],
      [
        "am",
        "e"
      ],
      [
        "Ġg",
        "ot"
      ],
      [
        "in",
        "k"
      ],
      [
        "an",
        "t"
      ],
      [
        "Ġ",
        "#"
      ],
      [
        "u",
        "n"
      ],
      [
        "m",
        "a"
      ],
      [
        "Ġab",
        "out"
      ],
      [
        "i",
        "l"
      ],
      [
        "Ġh",
        "ow"
      ],
      [
        "Ġg",
        "ood"
      ],
      [
        "en",
        "d"
      ],
      [
        "a",
        "ck"
      ],
      [
        "Ġ",
        "or"
      ],
      [
        "Ġs",
        "ome"
      ],
      [
        "Ġd",
        "id"
      ],
      [
        "Ġto",
        "o"
      ],
      [
        "Ġm",
        "a"
      ],
      [
        "e",
        "p"
      ],
      [
        "at",
        "e"
      ],
      [
        "i",
        "g"
      ],
      [
        "Ġt",
        "im"
      ],
      [
        "Ġe",
        "ver"
      ],
      [
        "Ġth",
        "ink"
      ],
      [
        "Ġwh",
        "en"
      ],
      [
        "u",
        "s"
      ],
      [
        "u",
        "ck"
      ],
      [
        "u",
        "m"
      ],
      [
        "n",
        "a"
      ],
      [
        "Ġon",
        "e"
      ],
      [
        "Ġth",
        "ere"
      ],
      [
        "am",
        "p"
      ],
      [
        "Ġd",
        "e"
      ],
      [
        "i",
        "e"
      ],
      [
        "es",
        "s"
      ],
      [
        "er",
        "s"
      ],
      [
        "a",
        "b"
      ],
      [
        "Ġ",
        "2"
      ],
      [
        "h",
        "a"
      ],
      [
        "k",
        "ing"
      ],
      [
        "a",
        "u"
      ],
      [
        "d",
        "ay"
      ],
      [
        "Ġs",
        "ee"
      ],
      [
        "ar",
        "t"
      ],
      [
        "Ġd",
        "ay"
      ],
      [
        "g",
        "e"
      ],
      [
        "ou",
        "n"
      ],
      [
        "a",
        "in"
      ],
      [
        "an",
        "d"
      ],
      [
        "Ġtim",
        "e"
      ],
      [
        "Ġ",
        "\""
      ],
      [
        "Ġw",
        "ould"
      ],
      [
        "Ġth",
        "an"
      ],
      [
        "Ġc",
        "om"
      ],
      [
        "Ġan",
        "y"
      ],
      [
        "Ġ",
        "v"
      ],
      [
        "Ġe",
        "x"
      ],
      [
        "r",
        "i"
      ],
      [
        "Ġne",
        "ed"
      ],
      [
        "a",
        "st"
      ],
      [
        "Ġ",
        "1"
      ],
      [
        "'",
        "re"
      ],
      [
        "v",
        "en"
      ],
      [
        "'",
        "ll"
      ],
      [
        "?",
        "?"
      ],
      [
        "Ġ",
        "&"
      ],
      [
        "in",
        "d"
      ],
      [
        "s",
        "s"
      ],
      [
        "k",
        "s"
      ],
      [
        "ou",
        "gh"
      ],
      [
        "Ġc",
        "on"
      ],
      [
        "Ġsh",
        "e"
      ],
      [
        "Ġw",
        "ill"
      ],
      [
        "i",
        "ck"
      ],
      [
        "Ġw",
        "ant"
      ],
      [
        "Ġfr",
        "om"
      ],
      [
        "f",
        "f"
      ],
      [
        "Ġs",
        "p"
      ],
      [
        "Ġm",
        "an"
      ],
      [
        "Ġn",
        "ow"
      ],
      [
        "Ġsh",
        "it"
      ],
      [
        "r",
        "a"
      ],
      [
        "Ġwh",
        "o"
      ],
      [
        "Ġever",
        "y"
      ],
      [
        "ou",
        "r"
      ],
      [
        "Ġs",
        "e"
      ],
      [
        "a",
        "re"
      ],
      [
        "Ġy",
        "ea"
      ],
      [
        "Ġu",
        "n"
      ],
      [
        "Ġs",
        "a"
      ],
      [
        "at",
        "ch"
      ],
      [
        "Ġwh",
        "y"
      ],
      [
        "r",
        "y"
      ],
      [
        "Ġi",
        "m"
      ],
      [
        "u",
        "d"
      ],
      [
        "u",
        "e"
      ],
      [
        "Ġt",
        "e"
      ],
      [
        "Ġc",
        "o"
      ],
      [
        "Ġst",
        "ill"
      ],
      [
        "au",
        "se"
      ],
      [
        "Ġthe",
        "m"
      ],
      [
        "Ġf",
        "uck"
      ],
      [
        "Ġmo",
        "re"
      ],
      [
        "Ġp",
        "o"
      ],
      [
        "Ġc",
        "l"
      ],
      [
        "Ġlo",
        "ve"
      ],
      [
        "Ġwor",
        "k"
      ],
      [
        "Ġthe",
        "n"
      ],
      [
        "Ġof",
        "f"
      ],
      [
        "Ġgo",
        "ing"
      ],
      [
        "in",
        "e"
      ],
      [
        "Ġb",
        "ack"
      ],
      [
        "oo",
        "k"
      ],
      [
        "is",
        "s"
      ],
      [
        "'",
        "ve"
      ],
      [
        "Ġa",
        "g"
      ],
      [
        "Ġh",
        "er"
      ],
      [
        "Ġre",
        "ally"
      ],
      [
        "h",
        "ing"
      ],
      [
        "Ġt",
        "w"
      ],
      [
        "ee",
        "l"
      ],
      [
        "Ġb",
        "l"
      ],
      [
        "Ġa",
        "m"
      ],
      [
        "Ġp",
        "e"
      ],
      [
        "Ġp",
        "ro"
      ],
      [
        "Ġbe",
        "en"
      ],
      [
        "on",
        "g"
      ],
      [
        "oun",
        "d"
      ],
      [
        "o",
        "re"
      ],
      [
        "w",
        "ay"
      ],
      [
        "Ġl",
        "ma"
      ],
      [
        "h",
        "h"
      ],
      [
        "Ġm",
        "u"
      ],
      [
        "Ġs",
        "ay"
      ],
      [
        "Ġb",
        "et"
      ],
      [
        "Ġpl",
        "ay"
      ],
      [
        "a",
        "ke"
      ],
      [
        "Ġha",
        "d"
      ],
      [
        "it",
        "e"
      ],
      [
        "Ġe",
        "ven"
      ],
      [
        "oo",
        "l"
      ],
      [
        "Ġu",
        "s"
      ],
      [
        "t",
        "ing"
      ],
      [
        "p",
        "l"
      ],
      [
        "Ġf",
        "eel"
      ],
      [
        "p",
        "e"
      ],
      [
        "at",
        "ion"
      ],
      [
        "Ġyea",
        "h"
      ],
      [
        "le",
        "ep"
      ],
      [
        "Ġr",
        "ight"
      ],
      [
        "Ġtr",
        "y"
      ],
      [
        "Ġmu",
        "ch"
      ],
      [
        "n",
        "ing"
      ],
      [
        "u",
        "l"
      ],
      [
        "ou",
        "s"
      ],
      [
        "Ġo",
        "k"
      ],
      [
        "Ġpe",
        "op"
      ],
      [
        "Ġ",
        ":"
      ],
      [
        "Ġb",
        "r"
      ],
      [
        "Ġs",
        "c"
      ],
      [
        "Ġw",
        "ay"
      ],
      [
        "ow",
        "n"
      ],
      [
        "Ġpeop",
        "le"
      ],
      [
        "Ġ",
        "3"
      ],
      [
        "Ġf",
        "a"
      ],
      [
        "l",
        "f"
      ],
      [
        "f",
        "e"
      ],
      [
        "h",
        "er"
      ],
      [
        "x",
        "t"
      ],
      [
        "Ġm",
        "iss"
      ],
      [
        "Ġwe",
        "ll"
      ],
      [
        "Ġw",
        "atch"
      ],
      [
        "Ġsh",
        "ould"
      ],
      [
        "op",
        "e"
      ],
      [
        "Ġth",
        "o"
      ],
      [
        "id",
        "e"
      ],
      [
        "Ġo",
        "ver"
      ],
      [
        "v",
        "ing"
      ],
      [
        "Ġg",
        "u"
      ],
      [
        "Ġha",
        "pp"
      ],
      [
        "Ġwe",
        "e"
      ],
      [
        "d",
        "er"
      ],
      [
        "i",
        "st"
      ],
      [
        "Ġy",
        "es"
      ],
      [
        "Ġha",
        "ha"
      ],
      [
        "b",
        "er"
      ],
      [
        "Ġ",
        "q"
      ],
      [
        "Ġbe",
        "c"
      ],
      [
        "i",
        "es"
      ],
      [
        "Ġs",
        "leep"
      ],
      [
        "om",
        "et"
      ],
      [
        "is",
        "h"
      ],
      [
        "Ġw",
        "a"
      ],
      [
        "Ġb",
        "y"
      ],
      [
        "Ġl",
        "et"
      ],
      [
        "Ġp",
        "re"
      ],
      [
        "ad",
        "y"
      ],
      [
        "Ġlma",
        "o"
      ],
      [
        "Ġth",
        "ing"
      ],
      [
        "i",
        "ve"
      ],
      [
        "o",
        "l"
      ],
      [
        "Ġa",
        "r"
      ],
      [
        "Ġh",
        "is"
      ],
      [
        "Ġh",
        "ere"
      ],
      [
        "ic",
        "e"
      ],
      [
        "Ġma",
        "ke"
      ],
      [
        "e",
        "m"
      ],
      [
        "o",
        "d"
      ],
      [
        "Ġs",
        "omet"
      ],
      [
        "ea",
        "d"
      ],
      [
        "oo",
        "oo"
      ],
      [
        "Ġon",
        "ly"
      ],
      [
        "Ġa",
        "ct"
      ],
      [
        "Ġs",
        "m"
      ],
      [
        "Ġc",
        "ould"
      ],
      [
        "ea",
        "s"
      ],
      [
        "o",
        "s"
      ],
      [
        "Ġdo",
        "es"
      ],
      [
        "Ġi",
        "d"
      ],
      [
        "Ġo",
        "h"
      ],
      [
        "as",
        "s"
      ],
      [
        "Ġw",
        "ere"
      ],
      [
        "Ġg",
        "on"
      ],
      [
        "Ġy",
        "ear"
      ],
      [
        "Ġne",
        "ver"
      ],
      [
        "Ġg",
        "re"
      ],
      [
        "!!",
        "!"
      ],
      [
        "Ġbec",
        "ause"
      ],
      [
        "Ġha",
        "s"
      ],
      [
        "Ġt",
        "al"
      ],
      [
        "Ġas",
        "s"
      ],
      [
        "u",
        "p"
      ],
      [
        "Ġst",
        "art"
      ],
      [
        "b",
        "le"
      ],
      [
        "Ġh",
        "im"
      ],
      [
        "Ġn",
        "a"
      ],
      [
        "..",
        ".."
      ],
      [
        "Ġdid",
        "n"
      ],
      [
        "Ġn",
        "ight"
      ],
      [
        "ar",
        "d"
      ],
      [
        "Ġr",
        "o"
      ],
      [
        "u",
        "ally"
      ],
      [
        "or",
        "t"
      ],
      [
        "Ġd",
        "own"
      ],
      [
        "Ġin",
        "t"
      ],
      [
        "Ġs",
        "ame"
      ],
      [
        "Ġp",
        "r"
      ],
      [
        "Ġgon",
        "na"
      ],
      [
        "Ġc",
        "ome"
      ],
      [
        "an",
        "s"
      ],
      [
        "Ġl",
        "it"
      ],
      [
        "Ġwh",
        "i"
      ],
      [
        "Ġthe",
        "ir"
      ],
      [
        "Ġwa",
        "it"
      ],
      [
        "Ġa",
        "f"
      ],
      [
        "Ġl",
        "ast"
      ],
      [
        "Ġto",
        "day"
      ],
      [
        "Ġwee",
        "k"
      ],
      [
        "i",
        "p"
      ],
      [
        "o",
        "y"
      ],
      [
        "Ġ",
        "ke"
      ],
      [
        "Ġa",
        "w"
      ],
      [
        "Ġg",
        "ir"
      ],
      [
        "Ġsu",
        "re"
      ],
      [
        "p",
        "t"
      ],
      [
        "Ġbet",
        "ter"
      ],
      [
        "Ġl",
        "ot"
      ],
      [
        "Ġd",
        "r"
      ],
      [
        "it",
        "y"
      ],
      [
        "Ġb",
        "ro"
      ],
      [
        "t",
        "y"
      ],
      [
        "Ġt",
        "ea"
      ],
      [
        "Ġwh",
        "ere"
      ],
      [
        "Ġsh",
        "ow"
      ],
      [
        "Ġne",
        "w"
      ],
      [
        "th",
        "ing"
      ],
      [
        "Ġw",
        "on"
      ],
      [
        "Ġg",
        "ame"
      ],
      [
        "Ġ",
        "en"
      ],
      [
        "Ġo",
        "th"
      ],
      [
        "Ġl",
        "ook"
      ],
      [
        "re",
        "e"
      ],
      [
        "Ġgir",
        "l"
      ],
      [
        "Ġf",
        "e"
      ],
      [
        "se",
        "lf"
      ],
      [
        "'",
        "d"
      ],
      [
        "Ġth",
        "ough"
      ],
      [
        "Ġm",
        "or"
      ],
      [
        "Ġd",
        "am"
      ],
      [
        "Ġsa",
        "id"
      ],
      [
        "Ġsomet",
        "hing"
      ],
      [
        "b",
        "e"
      ],
      [
        "Ġm",
        "ad"
      ],
      [
        "Ġl",
        "ea"
      ],
      [
        "way",
        "s"
      ],
      [
        "u",
        "ll"
      ],
      [
        "Ġh",
        "ome"
      ],
      [
        "Ġh",
        "ope"
      ],
      [
        "Ġj",
        "o"
      ],
      [
        "Ġag",
        "ain"
      ],
      [
        "a",
        "k"
      ],
      [
        "i",
        "f"
      ],
      [
        "u",
        "re"
      ],
      [
        "Ġp",
        "h"
      ],
      [
        "Ġa",
        "d"
      ],
      [
        "Ġte",
        "ll"
      ],
      [
        "t",
        "a"
      ],
      [
        "Ġbe",
        "ing"
      ],
      [
        "m",
        "s"
      ],
      [
        "Ġt",
        "ake"
      ],
      [
        "ou",
        "ght"
      ],
      [
        "Ġg",
        "r"
      ],
      [
        "it",
        "ch"
      ],
      [
        "Ġr",
        "a"
      ],
      [
        "Ġoth",
        "er"
      ],
      [
        "Ġ",
        "?"
      ],
      [
        "Ġfr",
        "i"
      ],
      [
        "Ġal",
        "ways"
      ],
      [
        "Ġne",
        "xt"
      ],
      [
        "in",
        "t"
      ],
      [
        "Ġmor",
        "ning"
      ],
      [
        "Ġbe",
        "st"
      ],
      [
        "s",
        "h"
      ],
      [
        "Ġ",
        "."
      ],
      [
        "Ġfri",
        "end"
      ],
      [
        "Ġs",
        "ch"
      ],
      [
        "a",
        "a"
      ],
      [
        "e",
        "et"
      ],
      [
        "i",
        "re"
      ],
      [
        "u",
        "b"
      ],
      [
        "Ġw",
        "in"
      ],
      [
        "Ġh",
        "ear"
      ],
      [
        "Ġp",
        "art"
      ],
      [
        "Ġsome",
        "one"
      ],
      [
        "i",
        "ous"
      ],
      [
        "l",
        "p"
      ],
      [
        "m",
        "ent"
      ],
      [
        "Ġ",
        "5"
      ],
      [
        "Ġb",
        "ad"
      ],
      [
        "um",
        "p"
      ],
      [
        "Ġact",
        "ually"
      ],
      [
        "Ġ",
        "4"
      ],
      [
        "Ġc",
        "all"
      ],
      [
        "Ġit",
        "s"
      ],
      [
        "Ġst",
        "op"
      ],
      [
        "Ġdam",
        "n"
      ],
      [
        "0",
        "0"
      ],
      [
        "a",
        "g"
      ],
      [
        "Ġ",
        "("
      ],
      [
        "!!",
        "!!"
      ],
      [
        "Ġl",
        "e"
      ],
      [
        "g",
        "et"
      ],
      [
        "y",
        "y"
      ],
      [
        "Ġm",
        "ay"
      ],
      [
        "an",
        "na"
      ],
      [
        "ud",
        "e"
      ],
      [
        "Ġgre",
        "at"
      ],
      [
        "p",
        "er"
      ],
      [
        "Ġre",
        "m"
      ],
      [
        "Ġa",
        "pp"
      ],
      [
        "Ġw",
        "r"
      ],
      [
        "Ġh",
        "i"
      ],
      [
        "Ġf",
        "in"
      ],
      [
        "s",
        "o"
      ],
      [
        "Ġs",
        "w"
      ],
      [
        "Ġs",
        "er"
      ],
      [
        "Ġh",
        "o"
      ],
      [
        "Ġthan",
        "ks"
      ],
      [
        "c",
        "i"
      ],
      [
        "Ġw",
        "anna"
      ],
      [
        "Ġe",
        "m"
      ],
      [
        "Ġme",
        "an"
      ],
      [
        "Ġre",
        "al"
      ],
      [
        "Ġch",
        "e"
      ],
      [
        "Ġb",
        "u"
      ],
      [
        "Ġf",
        "ir"
      ],
      [
        "Ġb",
        "ig"
      ],
      [
        "Ġget",
        "ting"
      ],
      [
        "m",
        "m"
      ],
      [
        "r",
        "ow"
      ],
      [
        "Ġp",
        "ut"
      ],
      [
        "Ġday",
        "s"
      ],
      [
        "n",
        "t"
      ],
      [
        "Ġf",
        "un"
      ],
      [
        "Ġhe",
        "lp"
      ],
      [
        "Ġhapp",
        "en"
      ],
      [
        "a",
        "ge"
      ],
      [
        "i",
        "z"
      ],
      [
        "r",
        "d"
      ],
      [
        "re",
        "ady"
      ],
      [
        "Ġf",
        "o"
      ],
      [
        "ll",
        "ow"
      ],
      [
        "ot",
        "h"
      ],
      [
        "Ġli",
        "fe"
      ],
      [
        "ion",
        "s"
      ],
      [
        "Ġfir",
        "st"
      ],
      [
        "f",
        "ore"
      ],
      [
        "Ġy",
        "a"
      ],
      [
        "ea",
        "l"
      ],
      [
        "ig",
        "g"
      ],
      [
        "c",
        "on"
      ],
      [
        "Ġ",
        "ver"
      ],
      [
        "Ġm",
        "ight"
      ],
      [
        "Ġal",
        "ready"
      ],
      [
        "Ġde",
        "f"
      ],
      [
        "Ġok",
        "ay"
      ],
      [
        "Ġaf",
        "ter"
      ],
      [
        "Ġa",
        "c"
      ],
      [
        "Ġd",
        "is"
      ],
      [
        "Ġdo",
        "ing"
      ],
      [
        "Ġq",
        "u"
      ],
      [
        "i",
        "a"
      ],
      [
        "Ġa",
        "in"
      ],
      [
        "Ġd",
        "ude"
      ],
      [
        "en",
        "ce"
      ],
      [
        "Ġo",
        "m"
      ],
      [
        "ar",
        "y"
      ],
      [
        "a",
        "p"
      ],
      [
        "m",
        "or"
      ],
      [
        "v",
        "es"
      ],
      [
        "l",
        "i"
      ],
      [
        "w",
        "h"
      ],
      [
        "Ġ",
        "our"
      ],
      [
        "an",
        "g"
      ],
      [
        "Ġbe",
        "fore"
      ],
      [
        "Ġtry",
        "ing"
      ],
      [
        "Ġs",
        "l"
      ],
      [
        "Ġtea",
        "m"
      ],
      [
        "Ġf",
        "l"
      ],
      [
        "Ġal",
        "so"
      ],
      [
        "eas",
        "on"
      ],
      [
        "y",
        "s"
      ],
      [
        "ou",
        "se"
      ],
      [
        "Ġthan",
        "k"
      ],
      [
        "Ġfuck",
        "ing"
      ],
      [
        "Ġwhi",
        "ch"
      ],
      [
        "Ġke",
        "ep"
      ],
      [
        "Ġsch",
        "ool"
      ],
      [
        "Ġl",
        "ong"
      ],
      [
        "ab",
        "le"
      ],
      [
        "Ġman",
        "y"
      ],
      [
        "w",
        "n"
      ],
      [
        "Ġth",
        "ought"
      ],
      [
        "Ġs",
        "eason"
      ],
      [
        "Ġ",
        "-"
      ],
      [
        "Ġm",
        "om"
      ],
      [
        "ot",
        "her"
      ],
      [
        "Ġd",
        "i"
      ],
      [
        "Ġf",
        "ind"
      ],
      [
        "g",
        "g"
      ],
      [
        "Ġth",
        "r"
      ],
      [
        "Ġh",
        "it"
      ],
      [
        "Ġl",
        "oo"
      ],
      [
        "Ġu",
        "r"
      ],
      [
        "ut",
        "e"
      ],
      [
        "Ġmad",
        "e"
      ],
      [
        "i",
        "ld"
      ],
      [
        "u",
        "ff"
      ],
      [
        "Ġb",
        "re"
      ],
      [
        "Ġc",
        "ause"
      ],
      [
        "Ġc",
        "ool"
      ],
      [
        "at",
        "er"
      ],
      [
        "Ġo",
        "ld"
      ],
      [
        "Ġli",
        "st"
      ],
      [
        "oun",
        "t"
      ],
      [
        "Ġtal",
        "k"
      ],
      [
        "t",
        "le"
      ],
      [
        "Ġs",
        "in"
      ],
      [
        "Ġs",
        "ound"
      ],
      [
        "or",
        "s"
      ],
      [
        "Ġk",
        "id"
      ],
      [
        "Ġk",
        "ind"
      ],
      [
        "Ġid",
        "k"
      ],
      [
        "Ġom",
        "g"
      ],
      [
        "Ġm",
        "in"
      ],
      [
        "Ġm",
        "on"
      ],
      [
        "is",
        "e"
      ],
      [
        "Ġis",
        "n"
      ],
      [
        "ur",
        "s"
      ],
      [
        "ab",
        "ly"
      ],
      [
        "od",
        "y"
      ],
      [
        "Ġna",
        "h"
      ],
      [
        "l",
        "t"
      ],
      [
        "Ġs",
        "or"
      ],
      [
        "ea",
        "se"
      ],
      [
        "Ġu",
        "se"
      ],
      [
        "Ġany",
        "thing"
      ],
      [
        "Ġdoes",
        "n"
      ],
      [
        "k",
        "es"
      ],
      [
        "o",
        "ck"
      ],
      [
        "Ġ",
        "x"
      ],
      [
        "Ġ",
        "end"
      ],
      [
        "Ġw",
        "ar"
      ],
      [
        "Ġc",
        "r"
      ],
      [
        "an",
        "ce"
      ],
      [
        "Ġp",
        "er"
      ],
      [
        "it",
        "ter"
      ],
      [
        "Ġst",
        "ay"
      ],
      [
        "Ġre",
        "s"
      ],
      [
        "Ġgo",
        "d"
      ],
      [
        "Ġhe",
        "ll"
      ],
      [
        "Ġ:",
        ")"
      ],
      [
        "Ġb",
        "as"
      ],
      [
        "Ġh",
        "our"
      ],
      [
        "Ġn",
        "igg"
      ],
      [
        "Ġha",
        "rd"
      ],
      [
        "Ġevery",
        "one"
      ],
      [
        "Ġsm",
        "h"
      ],
      [
        "k",
        "ed"
      ],
      [
        "Ġcon",
        "t"
      ],
      [
        "Ġtw",
        "eet"
      ],
      [
        "Ġhapp",
        "y"
      ],
      [
        "Ġsor",
        "ry"
      ],
      [
        "f",
        "ul"
      ],
      [
        "Ġh",
        "ead"
      ],
      [
        "at",
        "s"
      ],
      [
        "at",
        "ed"
      ],
      [
        "Ġsin",
        "ce"
      ],
      [
        "a",
        "ct"
      ],
      [
        "Ġ",
        "7"
      ],
      [
        "Ġ",
        "8"
      ],
      [
        "Ġb",
        "ab"
      ],
      [
        "Ġb",
        "itch"
      ],
      [
        "Ġc",
        "ra"
      ],
      [
        "Ġc",
        "are"
      ],
      [
        "Ġpro",
        "b"
      ],
      [
        "Ġtho",
        "se"
      ],
      [
        "?",
        "!"
      ],
      [
        "m",
        "o"
      ],
      [
        "Ġf",
        "am"
      ],
      [
        "Ġo",
        "p"
      ],
      [
        "Ġe",
        "l"
      ],
      [
        "Ġre",
        "c"
      ],
      [
        "one",
        "y"
      ],
      [
        "Ġgu",
        "ess"
      ],
      [
        "Ġpre",
        "t"
      ],
      [
        "e",
        "ver"
      ],
      [
        "o",
        "g"
      ],
      [
        "Ġm",
        "ar"
      ],
      [
        "Ġc",
        "ar"
      ],
      [
        "Ġre",
        "ad"
      ],
      [
        "Ġsu",
        "pp"
      ],
      [
        "e",
        "ct"
      ],
      [
        "i",
        "ly"
      ],
      [
        "u",
        "h"
      ],
      [
        "v",
        "ie"
      ],
      [
        "Ġb",
        "o"
      ],
      [
        "re",
        "ss"
      ],
      [
        "at",
        "ing"
      ],
      [
        "or",
        "y"
      ],
      [
        "Ġq",
        "ue"
      ],
      [
        "Ġar",
        "ound"
      ],
      [
        "Ġint",
        "o"
      ],
      [
        "Ġver",
        "y"
      ],
      [
        "Ġ",
        "..."
      ],
      [
        "Ġw",
        "ish"
      ],
      [
        "Ġb",
        "c"
      ],
      [
        "Ġl",
        "a"
      ],
      [
        "at",
        "h"
      ],
      [
        "Ġp",
        "ers"
      ],
      [
        "Ġtr",
        "ue"
      ],
      [
        "??",
        "?"
      ],
      [
        "pe",
        "ct"
      ],
      [
        "Ġhi",
        "gh"
      ],
      [
        "b",
        "ody"
      ],
      [
        "l",
        "ess"
      ],
      [
        "z",
        "y"
      ],
      [
        "Ġthe",
        "se"
      ],
      [
        "Ġto",
        "mor"
      ],
      [
        "or",
        "m"
      ],
      [
        "Ġgot",
        "ta"
      ],
      [
        "Ġthink",
        "ing"
      ],
      [
        "Ġcom",
        "p"
      ],
      [
        "Ġrem",
        "em"
      ],
      [
        "Ġtomor",
        "row"
      ],
      [
        "a",
        "ce"
      ],
      [
        "f",
        "t"
      ],
      [
        "v",
        "ed"
      ],
      [
        "ve",
        "l"
      ],
      [
        "Ġso",
        "on"
      ],
      [
        "ir",
        "d"
      ],
      [
        "Ġdon",
        "t"
      ],
      [
        "Ġpl",
        "ease"
      ],
      [
        "Ġcl",
        "ass"
      ],
      [
        "Ġlit",
        "er"
      ],
      [
        "Ġthr",
        "ough"
      ],
      [
        "l",
        "ie"
      ],
      [
        "Ġw",
        "ent"
      ],
      [
        "Ġany",
        "one"
      ],
      [
        "Ġtw",
        "itter"
      ],
      [
        "Ġtal",
        "king"
      ],
      [
        "Ġpers",
        "on"
      ],
      [
        "Ġremem",
        "ber"
      ],
      [
        "a",
        "ch"
      ],
      [
        "e",
        "w"
      ],
      [
        "o",
        "se"
      ],
      [
        "Ġh",
        "ouse"
      ],
      [
        "Ġc",
        "re"
      ],
      [
        "ur",
        "n"
      ],
      [
        "Ġcom",
        "ing"
      ],
      [
        "Ġweek",
        "end"
      ],
      [
        "Ġpret",
        "ty"
      ],
      [
        "e",
        "en"
      ],
      [
        "Ġ",
        ","
      ],
      [
        "Ġp",
        "ay"
      ],
      [
        "Ġ2",
        "0"
      ],
      [
        "Ġpo",
        "int"
      ],
      [
        "Ġtw",
        "o"
      ],
      [
        "Ġthing",
        "s"
      ],
      [
        "w",
        "w"
      ],
      [
        "Ġd",
        "ri"
      ],
      [
        "Ġp",
        "ick"
      ],
      [
        "st",
        "er"
      ],
      [
        "Ġst",
        "uff"
      ],
      [
        "Ġk",
        "ill"
      ],
      [
        "Ġnot",
        "hing"
      ],
      [
        "Ġmo",
        "st"
      ],
      [
        "Ġhaha",
        "ha"
      ],
      [
        "Ġlist",
        "en"
      ],
      [
        "d",
        "s"
      ],
      [
        "t",
        "s"
      ],
      [
        "Ġ",
        "!"
      ],
      [
        "Ġ",
        "6"
      ],
      [
        "Ġ",
        "ear"
      ],
      [
        "Ġt",
        "on"
      ],
      [
        "Ġh",
        "ate"
      ],
      [
        "Ġd",
        "one"
      ],
      [
        "ea",
        "k"
      ],
      [
        "Ġha",
        "ven"
      ],
      [
        "Ġmy",
        "self"
      ],
      [
        "Ġmay",
        "be"
      ],
      [
        "Ġprob",
        "ably"
      ],
      [
        "Ġliter",
        "ally"
      ],
      [
        "p",
        "h"
      ],
      [
        "Ġ",
        "9"
      ],
      [
        "Ġb",
        "oth"
      ],
      [
        "Ġli",
        "ve"
      ],
      [
        "ic",
        "al"
      ],
      [
        "ith",
        "er"
      ],
      [
        "one",
        "st"
      ],
      [
        "Ġte",
        "xt"
      ],
      [
        "Ġyear",
        "s"
      ],
      [
        "Ġjo",
        "b"
      ],
      [
        "Ġph",
        "one"
      ],
      [
        "Ġsound",
        "s"
      ],
      [
        "Ġnigg",
        "a"
      ],
      [
        "Ġton",
        "ight"
      ],
      [
        "l",
        "es"
      ],
      [
        "Ġm",
        "oney"
      ],
      [
        "Ġh",
        "and"
      ],
      [
        "Ġh",
        "onest"
      ],
      [
        "Ġl",
        "m"
      ],
      [
        "Ġf",
        "ree"
      ],
      [
        "Ġg",
        "l"
      ],
      [
        "Ġg",
        "ive"
      ],
      [
        "Ġre",
        "l"
      ],
      [
        "Ġwas",
        "n"
      ],
      [
        "Ġsu",
        "ck"
      ],
      [
        "Ġde",
        "c"
      ],
      [
        "Ġcom",
        "pl"
      ],
      [
        "Ġex",
        "c"
      ],
      [
        "Ġun",
        "der"
      ],
      [
        "Ġwhi",
        "le"
      ],
      [
        "b",
        "all"
      ],
      [
        "Ġ",
        "es"
      ],
      [
        "Ġw",
        "al"
      ],
      [
        "in",
        "ite"
      ],
      [
        "Ġb",
        "oy"
      ],
      [
        "Ġy",
        "et"
      ],
      [
        "Ġo",
        "wn"
      ],
      [
        "et",
        "s"
      ],
      [
        "Ġwor",
        "ld"
      ],
      [
        "Ġcon",
        "f"
      ],
      [
        "Ġlit",
        "tle"
      ],
      [
        "Ġwon",
        "der"
      ],
      [
        "e",
        "l"
      ],
      [
        "f",
        "a"
      ],
      [
        "Ġi",
        "ma"
      ],
      [
        "Ġl",
        "ate"
      ],
      [
        "Ġg",
        "one"
      ],
      [
        "Ġn",
        "ice"
      ],
      [
        "as",
        "h"
      ],
      [
        "Ġr",
        "n"
      ],
      [
        "Ġwe",
        "ird"
      ],
      [
        "Ġwor",
        "king"
      ],
      [
        "Ġun",
        "t"
      ],
      [
        "Ġlea",
        "st"
      ],
      [
        "ull",
        "y"
      ],
      [
        "Ġche",
        "ck"
      ],
      [
        "i",
        "ed"
      ],
      [
        "p",
        "s"
      ],
      [
        "Ġ",
        "ed"
      ],
      [
        "Ġb",
        "ed"
      ],
      [
        "Ġm",
        "us"
      ],
      [
        "am",
        "es"
      ],
      [
        "Ġst",
        "ud"
      ],
      [
        "ig",
        "n"
      ],
      [
        "Ġfriend",
        "s"
      ],
      [
        "Ġser",
        "ious"
      ],
      [
        "t",
        "f"
      ],
      [
        "Ġ",
        "*"
      ],
      [
        "Ġd",
        "es"
      ],
      [
        "an",
        "ge"
      ],
      [
        "en",
        "se"
      ],
      [
        "Ġevery",
        "thing"
      ],
      [
        "Ġpo",
        "l"
      ],
      [
        "Ġunt",
        "il"
      ],
      [
        "d",
        "y"
      ],
      [
        "o",
        "ke"
      ],
      [
        "q",
        "u"
      ],
      [
        "Ġ",
        "$"
      ],
      [
        "Ġ",
        "z"
      ],
      [
        "Ġs",
        "n"
      ],
      [
        "Ġh",
        "ur"
      ],
      [
        "Ġv",
        "ot"
      ],
      [
        "Ġse",
        "en"
      ],
      [
        "hh",
        "hh"
      ],
      [
        "Ġfe",
        "w"
      ],
      [
        "Ġdef",
        "inite"
      ],
      [
        "Ġel",
        "se"
      ],
      [
        "t",
        "en"
      ],
      [
        "Ġy",
        "o"
      ],
      [
        "Ġf",
        "ine"
      ],
      [
        "Ġpro",
        "ble"
      ],
      [
        "Ġfeel",
        "ing"
      ],
      [
        "Ġhear",
        "d"
      ],
      [
        "Ġac",
        "c"
      ],
      [
        "i",
        "x"
      ],
      [
        "i",
        "ch"
      ],
      [
        "Ġ",
        "eas"
      ],
      [
        "Ġt",
        "y"
      ],
      [
        "Ġa",
        "way"
      ],
      [
        "Ġs",
        "y"
      ],
      [
        "Ġw",
        "ow"
      ],
      [
        "Ġb",
        "oo"
      ],
      [
        "re",
        "am"
      ],
      [
        "Ġf",
        "re"
      ],
      [
        "or",
        "d"
      ],
      [
        "en",
        "s"
      ],
      [
        "ic",
        "s"
      ],
      [
        "Ġsay",
        "ing"
      ],
      [
        "Ġfa",
        "v"
      ],
      [
        "Ġbu",
        "y"
      ],
      [
        "Ġlm",
        "fa"
      ],
      [
        "Ġdefinite",
        "ly"
      ],
      [
        "b",
        "s"
      ],
      [
        "i",
        "i"
      ],
      [
        "i",
        "ble"
      ],
      [
        "n",
        "y"
      ],
      [
        "t",
        "t"
      ],
      [
        "Ġm",
        "id"
      ],
      [
        "Ġd",
        "ead"
      ],
      [
        "Ġf",
        "an"
      ],
      [
        "Ġp",
        "pl"
      ],
      [
        "Ġbe",
        "lie"
      ],
      [
        "ic",
        "t"
      ],
      [
        "im",
        "e"
      ],
      [
        "Ġwith",
        "out"
      ],
      [
        "Ġma",
        "kes"
      ],
      [
        "ff",
        "er"
      ],
      [
        "Ġdr",
        "op"
      ],
      [
        "Ġen",
        "ough"
      ],
      [
        "Ġhour",
        "s"
      ],
      [
        "mo",
        "st"
      ],
      [
        "i",
        "o"
      ],
      [
        "Ġt",
        "a"
      ],
      [
        "Ġs",
        "k"
      ],
      [
        "Ġs",
        "ad"
      ],
      [
        "Ġto",
        "get"
      ],
      [
        "Ġn",
        "ame"
      ],
      [
        "Ġan",
        "other"
      ],
      [
        "Ġe",
        "v"
      ],
      [
        "Ġe",
        "at"
      ],
      [
        "Ġe",
        "ither"
      ],
      [
        "Ġre",
        "ady"
      ],
      [
        "Ġwatch",
        "ing"
      ],
      [
        "Ġfo",
        "llow"
      ],
      [
        "f",
        "ully"
      ],
      [
        "g",
        "r"
      ],
      [
        "y",
        "e"
      ],
      [
        "Ġs",
        "ong"
      ],
      [
        "Ġc",
        "ame"
      ],
      [
        "Ġc",
        "ry"
      ],
      [
        "it",
        "s"
      ],
      [
        "id",
        "ay"
      ],
      [
        "Ġr",
        "un"
      ],
      [
        "Ġtr",
        "ump"
      ],
      [
        "un",
        "ch"
      ],
      [
        "Ġag",
        "o"
      ],
      [
        "Ġloo",
        "king"
      ],
      [
        "Ġhonest",
        "ly"
      ],
      [
        "i",
        "le"
      ],
      [
        "at",
        "ur"
      ],
      [
        "Ġwh",
        "ite"
      ],
      [
        "Ġtim",
        "es"
      ],
      [
        "ard",
        "s"
      ],
      [
        "Ġque",
        "st"
      ],
      [
        "Ġtoget",
        "her"
      ],
      [
        "g",
        "er"
      ],
      [
        "i",
        "an"
      ],
      [
        "s",
        "u"
      ],
      [
        "Ġh",
        "u"
      ],
      [
        "Ġd",
        "a"
      ],
      [
        "Ġc",
        "ount"
      ],
      [
        "Ġf",
        "ood"
      ],
      [
        "Ġp",
        "a"
      ],
      [
        "Ġha",
        "ving"
      ],
      [
        "Ġlo",
        "st"
      ],
      [
        "ere",
        "st"
      ],
      [
        "ad",
        "e"
      ],
      [
        "Ġhe",
        "y"
      ],
      [
        "Ġsu",
        "ch"
      ],
      [
        "are",
        "d"
      ],
      [
        "Ġim",
        "p"
      ],
      [
        "Ġpart",
        "y"
      ],
      [
        "Ġop",
        "en"
      ],
      [
        "g",
        "s"
      ],
      [
        "s",
        "ide"
      ],
      [
        "Ġs",
        "ing"
      ],
      [
        "Ġw",
        "om"
      ],
      [
        "Ġw",
        "ater"
      ],
      [
        "Ġb",
        "ea"
      ],
      [
        "Ġd",
        "ad"
      ],
      [
        "Ġin",
        "st"
      ],
      [
        "Ġe",
        "p"
      ],
      [
        "as",
        "on"
      ],
      [
        "Ġre",
        "g"
      ],
      [
        "ct",
        "ion"
      ],
      [
        "Ġyour",
        "self"
      ],
      [
        "Ġal",
        "most"
      ],
      [
        "Ġneed",
        "s"
      ],
      [
        "are",
        "nt"
      ],
      [
        "Ġbl",
        "ack"
      ],
      [
        "Ġfa",
        "ce"
      ],
      [
        "Ġstart",
        "ed"
      ],
      [
        "Ġwr",
        "ong"
      ],
      [
        "Ġmon",
        "th"
      ],
      [
        "Ġcra",
        "zy"
      ],
      [
        "c",
        "y"
      ],
      [
        "Ġs",
        "it"
      ],
      [
        "Ġs",
        "na"
      ],
      [
        "Ġw",
        "tf"
      ],
      [
        "Ġm",
        "ent"
      ],
      [
        "Ġc",
        "ur"
      ],
      [
        "at",
        "ter"
      ],
      [
        "Ġg",
        "en"
      ],
      [
        "Ġg",
        "ames"
      ],
      [
        "it",
        "ed"
      ],
      [
        "Ġin",
        "d"
      ],
      [
        "Ġin",
        "ter"
      ],
      [
        "Ġon",
        "ce"
      ],
      [
        "Ġst",
        "r"
      ],
      [
        "Ġch",
        "ill"
      ],
      [
        "Ġma",
        "king"
      ],
      [
        "Ġco",
        "ld"
      ],
      [
        "Ġfa",
        "ct"
      ],
      [
        "Ġbelie",
        "ve"
      ],
      [
        "b",
        "r"
      ],
      [
        "d",
        "d"
      ],
      [
        "n",
        "e"
      ],
      [
        "Ġb",
        "out"
      ],
      [
        "Ġm",
        "ind"
      ],
      [
        "Ġy",
        "e"
      ],
      [
        "Ġsh",
        "o"
      ],
      [
        "Ġre",
        "t"
      ],
      [
        "Ġre",
        "ason"
      ],
      [
        "Ġex",
        "act"
      ],
      [
        "Ġcon",
        "s"
      ],
      [
        "Ġse",
        "con"
      ],
      [
        "Ġint",
        "erest"
      ],
      [
        "Ġfin",
        "ally"
      ],
      [
        "Ġdi",
        "ffer"
      ],
      [
        "a",
        "h"
      ],
      [
        "m",
        "y"
      ],
      [
        "Ġs",
        "im"
      ],
      [
        "Ġm",
        "ed"
      ],
      [
        "Ġd",
        "ra"
      ],
      [
        "ing",
        "s"
      ],
      [
        "Ġp",
        "ass"
      ],
      [
        "us",
        "s"
      ],
      [
        "um",
        "b"
      ],
      [
        "Ġ1",
        "0"
      ],
      [
        "ss",
        "ss"
      ],
      [
        "Ġwant",
        "ed"
      ],
      [
        "Ġcl",
        "ose"
      ],
      [
        "Ġus",
        "ed"
      ],
      [
        "Ġgu",
        "y"
      ],
      [
        "d",
        "ing"
      ],
      [
        "i",
        "er"
      ],
      [
        "p",
        "r"
      ],
      [
        "p",
        "ed"
      ],
      [
        "Ġs",
        "ur"
      ],
      [
        "Ġb",
        "ir"
      ],
      [
        "Ġb",
        "us"
      ],
      [
        "Ġm",
        "ust"
      ],
      [
        "Ġm",
        "ine"
      ],
      [
        "Ġh",
        "ot"
      ],
      [
        "Ġh",
        "un"
      ],
      [
        "Ġf",
        "ar"
      ],
      [
        "Ġto",
        "p"
      ],
      [
        "Ġthat",
        "s"
      ],
      [
        "id",
        "ent"
      ],
      [
        "ee",
        "ee"
      ],
      [
        "Ġat",
        "t"
      ],
      [
        "Ġpl",
        "ace"
      ],
      [
        "ma",
        "il"
      ],
      [
        "Ġwould",
        "n"
      ],
      [
        "Ġsa",
        "w"
      ],
      [
        "Ġhope",
        "fully"
      ],
      [
        "Ġbab",
        "y"
      ],
      [
        "i",
        "v"
      ],
      [
        "m",
        "e"
      ],
      [
        "Ġ",
        "ea"
      ],
      [
        "Ġ",
        ".."
      ],
      [
        "Ġt",
        "urn"
      ],
      [
        "Ġw",
        "y"
      ],
      [
        "Ġb",
        "it"
      ],
      [
        "er",
        "t"
      ],
      [
        "Ġl",
        "ess"
      ],
      [
        "at",
        "es"
      ],
      [
        "Ġg",
        "i"
      ],
      [
        "Ġto",
        "t"
      ],
      [
        "st",
        "and"
      ],
      [
        "Ġan",
        "n"
      ],
      [
        "oo",
        "o"
      ],
      [
        "Ġfr",
        "iday"
      ],
      [
        "Ġtoo",
        "k"
      ],
      [
        "Ġ:",
        "("
      ],
      [
        "Ġgu",
        "ys"
      ],
      [
        "Ġro",
        "om"
      ],
      [
        "Ġwait",
        "ing"
      ],
      [
        "Ġhappen",
        "ed"
      ],
      [
        "Ġbre",
        "ak"
      ],
      [
        "Ġkind",
        "a"
      ],
      [
        "Ġmus",
        "ic"
      ],
      [
        "i",
        "b"
      ],
      [
        "l",
        "o"
      ],
      [
        "Ġt",
        "ick"
      ],
      [
        "Ġb",
        "or"
      ],
      [
        "Ġc",
        "our"
      ],
      [
        "Ġc",
        "atch"
      ],
      [
        "Ġto",
        "ld"
      ],
      [
        "Ġin",
        "f"
      ],
      [
        "al",
        "s"
      ],
      [
        "Ġmo",
        "vie"
      ],
      [
        "Ġcom",
        "m"
      ],
      [
        "Ġplay",
        "ing"
      ],
      [
        "Ġcould",
        "n"
      ],
      [
        "Ġexact",
        "ly"
      ],
      [
        "3",
        "0"
      ],
      [
        "g",
        "n"
      ],
      [
        "g",
        "ot"
      ],
      [
        "i",
        "k"
      ],
      [
        "l",
        "ing"
      ],
      [
        "s",
        "w"
      ],
      [
        "Ġt",
        "er"
      ],
      [
        "at",
        "her"
      ],
      [
        "Ġf",
        "ull"
      ],
      [
        "Ġp",
        "ar"
      ],
      [
        "is",
        "od"
      ],
      [
        "Ġre",
        "st"
      ],
      [
        "Ġget",
        "s"
      ],
      [
        "Ġab",
        "s"
      ],
      [
        "Ġpl",
        "an"
      ],
      [
        "ri",
        "ors"
      ],
      [
        "Ġkid",
        "s"
      ],
      [
        "urs",
        "day"
      ],
      [
        "Ġfam",
        "ily"
      ],
      [
        "Ġep",
        "isod"
      ],
      [
        "Ġbir",
        "th"
      ],
      [
        "a",
        "il"
      ],
      [
        "b",
        "o"
      ],
      [
        "u",
        "al"
      ],
      [
        "Ġs",
        "end"
      ],
      [
        "er",
        "ed"
      ],
      [
        "Ġl",
        "uck"
      ],
      [
        "Ġc",
        "ute"
      ],
      [
        "Ġha",
        "ir"
      ],
      [
        "Ġin",
        "c"
      ],
      [
        "Ġe",
        "mail"
      ],
      [
        "Ġsu",
        "per"
      ],
      [
        "Ġcom",
        "es"
      ],
      [
        "ire",
        "d"
      ],
      [
        "Ġwar",
        "riors"
      ],
      [
        "Ġsuck",
        "s"
      ],
      [
        "Ġfav",
        "or"
      ],
      [
        "i",
        "ans"
      ],
      [
        "m",
        "ed"
      ],
      [
        "ou",
        "p"
      ],
      [
        "ou",
        "ch"
      ],
      [
        "er",
        "ic"
      ],
      [
        "Ġh",
        "ill"
      ],
      [
        "Ġl",
        "ow"
      ],
      [
        "Ġn",
        "ope"
      ],
      [
        "an",
        "k"
      ],
      [
        "Ġkn",
        "ew"
      ],
      [
        "Ġch",
        "ange"
      ],
      [
        "ce",
        "pt"
      ],
      [
        "Ġwor",
        "d"
      ],
      [
        "Ġsay",
        "s"
      ],
      [
        "Ġbr",
        "uh"
      ],
      [
        "Ġdr",
        "ink"
      ],
      [
        "iz",
        "e"
      ],
      [
        "Ġeas",
        "y"
      ],
      [
        "Ġlmfa",
        "o"
      ],
      [
        "e",
        "st"
      ],
      [
        "r",
        "it"
      ],
      [
        "u",
        "u"
      ],
      [
        "Ġa",
        "v"
      ],
      [
        "on",
        "t"
      ],
      [
        "Ġd",
        "eal"
      ],
      [
        "Ġha",
        "lf"
      ],
      [
        "Ġha",
        "llow"
      ],
      [
        "ke",
        "y"
      ],
      [
        "Ġfor",
        "got"
      ],
      [
        "Ġch",
        "ild"
      ],
      [
        "un",
        "k"
      ],
      [
        "Ġsee",
        "ms"
      ],
      [
        "Ġpo",
        "st"
      ],
      [
        "Ġwee",
        "ks"
      ],
      [
        "Ġaw",
        "ake"
      ],
      [
        "Ġle",
        "g"
      ],
      [
        "Ġho",
        "ld"
      ],
      [
        "Ġ20",
        "1"
      ],
      [
        "Ġunder",
        "stand"
      ],
      [
        "Ġquest",
        "ion"
      ],
      [
        "Ġsecon",
        "d"
      ],
      [
        "Ġinterest",
        "ing"
      ],
      [
        "Ġtot",
        "ally"
      ],
      [
        "Ġhallow",
        "een"
      ],
      [
        "n",
        "o"
      ],
      [
        "w",
        "e"
      ],
      [
        "w",
        "or"
      ],
      [
        "y",
        "ing"
      ],
      [
        "Ġ",
        "'"
      ],
      [
        "Ġ",
        "@"
      ],
      [
        "Ġ",
        "ve"
      ],
      [
        "Ġth",
        "ursday"
      ],
      [
        "Ġm",
        "ess"
      ],
      [
        "Ġh",
        "ang"
      ],
      [
        "re",
        "d"
      ],
      [
        "Ġc",
        "or"
      ],
      [
        "Ġf",
        "ight"
      ],
      [
        "Ġf",
        "il"
      ],
      [
        "Ġg",
        "a"
      ],
      [
        "it",
        "ion"
      ],
      [
        "ut",
        "es"
      ],
      [
        "Ġli",
        "l"
      ],
      [
        "Ġst",
        "ate"
      ],
      [
        "ic",
        "ally"
      ],
      [
        "Ġsu",
        "n"
      ],
      [
        "Ġsee",
        "ing"
      ],
      [
        "ation",
        "s"
      ],
      [
        "Ġ3",
        "0"
      ],
      [
        "ub",
        "s"
      ],
      [
        "ci",
        "ally"
      ],
      [
        "Ġmin",
        "utes"
      ],
      [
        "Ġear",
        "ly"
      ],
      [
        "Ġproble",
        "m"
      ],
      [
        "Ġsna",
        "p"
      ],
      [
        "Ġdiffer",
        "ent"
      ],
      [
        "Ġcour",
        "se"
      ],
      [
        "Ġbirth",
        "day"
      ],
      [
        "c",
        "o"
      ],
      [
        "c",
        "es"
      ],
      [
        "d",
        "u"
      ],
      [
        "j",
        "oy"
      ],
      [
        "n",
        "n"
      ],
      [
        "n",
        "er"
      ],
      [
        "Ġ",
        ";"
      ],
      [
        "Ġi",
        "ll"
      ],
      [
        "Ġa",
        "ma"
      ],
      [
        "ea",
        "ks"
      ],
      [
        "Ġme",
        "et"
      ],
      [
        "ar",
        "k"
      ],
      [
        "Ġsh",
        "ot"
      ],
      [
        "im",
        "es"
      ],
      [
        "Ġgo",
        "es"
      ],
      [
        "Ġcan",
        "t"
      ],
      [
        "Ġtr",
        "ied"
      ],
      [
        "ha",
        "ha"
      ],
      [
        "Ġsp",
        "ort"
      ],
      [
        "Ġsp",
        "urs"
      ],
      [
        "Ġbr",
        "ing"
      ],
      [
        "Ġwatch",
        "ed"
      ],
      [
        "Ġen",
        "joy"
      ],
      [
        "Ġfin",
        "ish"
      ],
      [
        "Ġfavor",
        "ite"
      ],
      [
        "b",
        "y"
      ],
      [
        "c",
        "ed"
      ],
      [
        "d",
        "le"
      ],
      [
        "l",
        "and"
      ],
      [
        "m",
        "ore"
      ],
      [
        "Ġ",
        "er"
      ],
      [
        "Ġs",
        "ide"
      ],
      [
        "Ġw",
        "oke"
      ],
      [
        "in",
        "s"
      ],
      [
        "Ġh",
        "op"
      ],
      [
        "Ġd",
        "ream"
      ],
      [
        "Ġc",
        "at"
      ],
      [
        "Ġan",
        "sw"
      ],
      [
        "es",
        "e"
      ],
      [
        "Ġin",
        "s"
      ],
      [
        "am",
        "a"
      ],
      [
        "Ġst",
        "ar"
      ],
      [
        "Ġst",
        "ory"
      ],
      [
        "Ġdo",
        "g"
      ],
      [
        "um",
        "e"
      ],
      [
        "Ġex",
        "pect"
      ],
      [
        "Ġsp",
        "e"
      ],
      [
        "Ġwho",
        "le"
      ],
      [
        "Ġsc",
        "ared"
      ],
      [
        "Ġmiss",
        "ed"
      ],
      [
        "ol",
        "og"
      ],
      [
        "Ġpr",
        "ay"
      ],
      [
        "Ġgirl",
        "s"
      ],
      [
        "Ġserious",
        "ly"
      ],
      [
        "Ġta",
        "king"
      ],
      [
        "l",
        "ine"
      ],
      [
        "p",
        "ing"
      ],
      [
        "v",
        "ent"
      ],
      [
        "Ġt",
        "re"
      ],
      [
        "Ġt",
        "ill"
      ],
      [
        "Ġs",
        "et"
      ],
      [
        "Ġs",
        "atur"
      ],
      [
        "Ġw",
        "ear"
      ],
      [
        "Ġm",
        "atter"
      ],
      [
        "Ġh",
        "om"
      ],
      [
        "on",
        "d"
      ],
      [
        "Ġl",
        "ab"
      ],
      [
        "Ġc",
        "le"
      ],
      [
        "Ġf",
        "all"
      ],
      [
        "it",
        "ing"
      ],
      [
        "Ġo",
        "b"
      ],
      [
        "ut",
        "h"
      ],
      [
        "Ġst",
        "and"
      ],
      [
        "ver",
        "s"
      ],
      [
        "Ġup",
        "s"
      ],
      [
        "Ġtr",
        "a"
      ],
      [
        "Ġtr",
        "ip"
      ],
      [
        "th",
        "is"
      ],
      [
        "Ġwhat",
        "ever"
      ],
      [
        "Ġare",
        "n"
      ],
      [
        "Ġwor",
        "st"
      ],
      [
        "Ġwor",
        "th"
      ],
      [
        "Ġv",
        "is"
      ],
      [
        "Ġag",
        "ree"
      ],
      [
        "Ġplay",
        "ed"
      ],
      [
        "Ġsc",
        "re"
      ],
      [
        "Ġid",
        "ea"
      ],
      [
        "Ġgre",
        "en"
      ],
      [
        "Ġhappen",
        "s"
      ],
      [
        "eal",
        "th"
      ],
      [
        "wh",
        "ere"
      ],
      [
        "Ġsupp",
        "ort"
      ],
      [
        "Ġcompl",
        "ain"
      ],
      [
        "Ġwom",
        "en"
      ],
      [
        "Ġepisod",
        "e"
      ],
      [
        "Ġama",
        "z"
      ],
      [
        "Ġsatur",
        "day"
      ],
      [
        ".",
        "\""
      ],
      [
        "a",
        "pe"
      ],
      [
        "c",
        "er"
      ],
      [
        "g",
        "o"
      ],
      [
        "i",
        "pp"
      ],
      [
        "l",
        "a"
      ],
      [
        "Ġ",
        "et"
      ],
      [
        "Ġt",
        "ak"
      ],
      [
        "Ġth",
        "ree"
      ],
      [
        "Ġb",
        "ook"
      ],
      [
        "on",
        "s"
      ],
      [
        "Ġd",
        "ou"
      ],
      [
        "Ġd",
        "ur"
      ],
      [
        "Ġd",
        "umb"
      ],
      [
        "Ġf",
        "ore"
      ],
      [
        "Ġp",
        "ain"
      ],
      [
        "is",
        "ed"
      ],
      [
        "Ġr",
        "and"
      ],
      [
        "Ġk",
        "ick"
      ],
      [
        "th",
        "e"
      ],
      [
        "Ġas",
        "k"
      ],
      [
        "ro",
        "ss"
      ],
      [
        "Ġmo",
        "ve"
      ],
      [
        "Ġ1",
        "00"
      ],
      [
        "Ġsp",
        "eak"
      ],
      [
        "Ġco",
        "ll"
      ],
      [
        "Ġbl",
        "ock"
      ],
      [
        "fe",
        "ct"
      ],
      [
        "Ġsomet",
        "imes"
      ],
      [
        "oooo",
        "o"
      ],
      [
        "aa",
        "aa"
      ],
      [
        "f",
        "ort"
      ],
      [
        "l",
        "ed"
      ],
      [
        "n",
        "ed"
      ],
      [
        "s",
        "er"
      ],
      [
        "t",
        "ed"
      ],
      [
        "Ġ",
        "/"
      ],
      [
        "Ġ",
        "Ġ"
      ],
      [
        "Ġt",
        "b"
      ],
      [
        "Ġt",
        "v"
      ],
      [
        "er",
        "ing"
      ],
      [
        "Ġl",
        "ear"
      ],
      [
        "Ġd",
        "ep"
      ],
      [
        "Ġd",
        "ate"
      ],
      [
        "Ġd",
        "ick"
      ],
      [
        "at",
        "ive"
      ],
      [
        "Ġf",
        "ound"
      ],
      [
        "Ġp",
        "arent"
      ],
      [
        "es",
        "ome"
      ],
      [
        "..",
        "..."
      ],
      [
        "Ġme",
        "ant"
      ],
      [
        "Ġfor",
        "get"
      ],
      [
        "us",
        "h"
      ],
      [
        "Ġv",
        "ide"
      ],
      [
        "Ġex",
        "t"
      ],
      [
        "Ġex",
        "pl"
      ],
      [
        "Ġaw",
        "esome"
      ],
      [
        "if",
        "ic"
      ],
      [
        "Ġad",
        "d"
      ],
      [
        "Ġra",
        "ce"
      ],
      [
        "sh",
        "ip"
      ],
      [
        "Ġfo",
        "ot"
      ],
      [
        "Ġhur",
        "t"
      ],
      [
        "Ġbea",
        "ut"
      ],
      [
        "a",
        "v"
      ],
      [
        "f",
        "orm"
      ],
      [
        "g",
        "ine"
      ],
      [
        "h",
        "o"
      ],
      [
        "i",
        "ent"
      ],
      [
        "i",
        "ence"
      ],
      [
        "m",
        "ber"
      ],
      [
        "n",
        "ess"
      ],
      [
        "Ġa",
        "p"
      ],
      [
        "Ġs",
        "ense"
      ],
      [
        "Ġw",
        "ed"
      ],
      [
        "Ġb",
        "en"
      ],
      [
        "Ġb",
        "ar"
      ],
      [
        "Ġb",
        "all"
      ],
      [
        "Ġb",
        "ur"
      ],
      [
        "Ġh",
        "ealth"
      ],
      [
        "Ġc",
        "al"
      ],
      [
        "ll",
        "y"
      ],
      [
        "Ġo",
        "pt"
      ],
      [
        "et",
        "e"
      ],
      [
        "as",
        "e"
      ],
      [
        "Ġj",
        "ack"
      ],
      [
        "Ġlo",
        "se"
      ],
      [
        "out",
        "h"
      ],
      [
        "Ġso",
        "l"
      ],
      [
        "Ġwas",
        "s"
      ],
      [
        "Ġtr",
        "ain"
      ],
      [
        "Ġtr",
        "ans"
      ],
      [
        "Ġout",
        "side"
      ],
      [
        "Ġpl",
        "us"
      ],
      [
        "au",
        "ght"
      ],
      [
        "Ġex",
        "per"
      ],
      [
        "Ġam",
        "eric"
      ],
      [
        "pe",
        "cially"
      ],
      [
        "Ġtry",
        "na"
      ],
      [
        "up",
        "id"
      ],
      [
        "Ġpr",
        "om"
      ],
      [
        "Ġle",
        "ft"
      ],
      [
        "Ġser",
        "ies"
      ],
      [
        "Ġloo",
        "ks"
      ],
      [
        "vie",
        "w"
      ],
      [
        "Ġgl",
        "ad"
      ],
      [
        "Ġes",
        "pecially"
      ],
      [
        "Ġwal",
        "k"
      ],
      [
        "Ġmid",
        "dle"
      ],
      [
        "Ġhu",
        "ge"
      ],
      [
        "Ġmed",
        "ia"
      ],
      [
        "Ġann",
        "oy"
      ],
      [
        "Ġhill",
        "ary"
      ],
      [
        "g",
        "t"
      ],
      [
        "l",
        "s"
      ],
      [
        "m",
        "ing"
      ],
      [
        "t",
        "on"
      ],
      [
        "Ġs",
        "ick"
      ],
      [
        "Ġb",
        "i"
      ],
      [
        "Ġl",
        "ady"
      ],
      [
        "Ġd",
        "m"
      ],
      [
        "Ġc",
        "ut"
      ],
      [
        "Ġf",
        "ut"
      ],
      [
        "ll",
        "s"
      ],
      [
        "Ġn",
        "er"
      ],
      [
        "an",
        "e"
      ],
      [
        "Ġp",
        "op"
      ],
      [
        "Ġp",
        "ast"
      ],
      [
        "st",
        "em"
      ],
      [
        "Ġbe",
        "at"
      ],
      [
        "Ġme",
        "ans"
      ],
      [
        "Ġj",
        "e"
      ],
      [
        "Ġst",
        "upid"
      ],
      [
        "Ġre",
        "p"
      ],
      [
        "ic",
        "es"
      ],
      [
        "Ġch",
        "o"
      ],
      [
        "Ġab",
        "le"
      ],
      [
        "il",
        "eaks"
      ],
      [
        "Ġma",
        "j"
      ],
      [
        "Ġany",
        "more"
      ],
      [
        "Ġco",
        "st"
      ],
      [
        "Ġpre",
        "s"
      ],
      [
        "ol",
        "ute"
      ],
      [
        "Ġar",
        "t"
      ],
      [
        "Ġlot",
        "s"
      ],
      [
        "Ġlea",
        "ve"
      ],
      [
        "if",
        "t"
      ],
      [
        "if",
        "ul"
      ],
      [
        "Ġhear",
        "t"
      ],
      [
        "Ġsw",
        "ear"
      ],
      [
        "Ġho",
        "e"
      ],
      [
        "ci",
        "al"
      ],
      [
        "wh",
        "at"
      ],
      [
        "Ġres",
        "pect"
      ],
      [
        "Ġcont",
        "ro"
      ],
      [
        "Ġdri",
        "ve"
      ],
      [
        "Ġvot",
        "e"
      ],
      [
        "Ġcount",
        "ry"
      ],
      [
        "Ġsing",
        "le"
      ],
      [
        "Ġsho",
        "ot"
      ],
      [
        "ik",
        "ileaks"
      ],
      [
        "Ġtb",
        "h"
      ],
      [
        "f",
        "er"
      ],
      [
        "g",
        "ue"
      ],
      [
        "l",
        "ic"
      ],
      [
        "n",
        "g"
      ],
      [
        "n",
        "ot"
      ],
      [
        "Ġc",
        "ity"
      ],
      [
        "an",
        "n"
      ],
      [
        "Ġp",
        "s"
      ],
      [
        "is",
        "m"
      ],
      [
        "Ġu",
        "gh"
      ],
      [
        "ir",
        "t"
      ],
      [
        "Ġas",
        "ked"
      ],
      [
        "Ġch",
        "ar"
      ],
      [
        "Ġde",
        "b"
      ],
      [
        "Ġv",
        "o"
      ],
      [
        "Ġ1",
        "1"
      ],
      [
        "Ġwant",
        "s"
      ],
      [
        "Ġcl",
        "ear"
      ],
      [
        "Ġbl",
        "ow"
      ],
      [
        "ore",
        "d"
      ],
      [
        "os",
        "ed"
      ],
      [
        "Ġbro",
        "ke"
      ],
      [
        "Ġra",
        "c"
      ],
      [
        "yy",
        "yy"
      ],
      [
        "Ġrem",
        "ind"
      ],
      [
        "Ġres",
        "p"
      ],
      [
        "Ġtweet",
        "s"
      ],
      [
        "Ġsy",
        "stem"
      ],
      [
        "Ġtick",
        "ets"
      ],
      [
        "Ġabs",
        "olute"
      ],
      [
        "bo",
        "x"
      ],
      [
        "Ġamaz",
        "ing"
      ],
      [
        "Ġbeaut",
        "iful"
      ],
      [
        "Ġwass",
        "up"
      ],
      [
        "Ġfut",
        "ure"
      ],
      [
        "i",
        "gh"
      ],
      [
        "i",
        "al"
      ],
      [
        "m",
        "er"
      ],
      [
        "r",
        "ight"
      ],
      [
        "t",
        "r"
      ],
      [
        "u",
        "es"
      ],
      [
        "u",
        "le"
      ],
      [
        "y",
        "le"
      ],
      [
        "Ġ",
        "...."
      ],
      [
        "Ġt",
        "f"
      ],
      [
        "Ġt",
        "ouch"
      ],
      [
        "Ġs",
        "ign"
      ],
      [
        "Ġl",
        "ine"
      ],
      [
        "Ġl",
        "ater"
      ],
      [
        "re",
        "st"
      ],
      [
        "Ġd",
        "et"
      ],
      [
        "Ġc",
        "e"
      ],
      [
        "Ġc",
        "u"
      ],
      [
        "Ġc",
        "ook"
      ],
      [
        "Ġf",
        "ake"
      ],
      [
        "Ġp",
        "in"
      ],
      [
        "Ġp",
        "ri"
      ],
      [
        "Ġe",
        "le"
      ],
      [
        "Ġe",
        "ff"
      ],
      [
        "ar",
        "a"
      ],
      [
        "Ġst",
        "re"
      ],
      [
        "Ġre",
        "pl"
      ],
      [
        "ent",
        "s"
      ],
      [
        "Ġtr",
        "ust"
      ],
      [
        "Ġknow",
        "s"
      ],
      [
        "Ġal",
        "right"
      ],
      [
        "Ġde",
        "m"
      ],
      [
        "au",
        "lt"
      ],
      [
        "Ġex",
        "p"
      ],
      [
        "ff",
        "ee"
      ],
      [
        "Ġse",
        "x"
      ],
      [
        "Ġco",
        "ach"
      ],
      [
        "Ġus",
        "ually"
      ],
      [
        "Ġsleep",
        "ing"
      ],
      [
        "Ġtea",
        "ch"
      ],
      [
        "Ġagain",
        "st"
      ],
      [
        "!!!!",
        "!!!!"
      ],
      [
        "Ġsl",
        "ow"
      ],
      [
        "Ġx",
        "box"
      ],
      [
        "Ġbas",
        "e"
      ],
      [
        "ster",
        "day"
      ],
      [
        "Ġkill",
        "ed"
      ],
      [
        "Ġexc",
        "ited"
      ],
      [
        "Ġinst",
        "ead"
      ],
      [
        "ne",
        "y"
      ],
      [
        "Ġye",
        "sterday"
      ],
      [
        "Ġdur",
        "ing"
      ],
      [
        "a",
        "w"
      ],
      [
        "a",
        "pp"
      ],
      [
        "c",
        "al"
      ],
      [
        "c",
        "ome"
      ],
      [
        "k",
        "et"
      ],
      [
        "l",
        "er"
      ],
      [
        "m",
        "an"
      ],
      [
        "t",
        "w"
      ],
      [
        "u",
        "g"
      ],
      [
        "u",
        "se"
      ],
      [
        "Ġi",
        "ve"
      ],
      [
        "Ġa",
        "ir"
      ],
      [
        "in",
        "es"
      ],
      [
        "ou",
        "d"
      ],
      [
        "Ġh",
        "mm"
      ],
      [
        "on",
        "es"
      ],
      [
        "Ġc",
        "op"
      ],
      [
        "Ġf",
        "ix"
      ],
      [
        "Ġn",
        "ear"
      ],
      [
        "Ġn",
        "orm"
      ],
      [
        "Ġp",
        "ow"
      ],
      [
        "et",
        "y"
      ],
      [
        "Ġon",
        "es"
      ],
      [
        "Ġli",
        "ght"
      ],
      [
        "Ġis",
        "su"
      ],
      [
        "Ġj",
        "ud"
      ],
      [
        "Ġre",
        "pe"
      ],
      [
        "Ġgo",
        "al"
      ],
      [
        "un",
        "t"
      ],
      [
        "ack",
        "s"
      ],
      [
        "ge",
        "st"
      ],
      [
        "ri",
        "st"
      ],
      [
        "ri",
        "ed"
      ],
      [
        "Ġneed",
        "ed"
      ],
      [
        "Ġpo",
        "ss"
      ],
      [
        "Ġpro",
        "du"
      ],
      [
        "hh",
        "h"
      ],
      [
        "Ġshould",
        "n"
      ],
      [
        "Ġro",
        "ck"
      ],
      [
        "Ġshow",
        "s"
      ],
      [
        "Ġwin",
        "ter"
      ],
      [
        "Ġfun",
        "ny"
      ],
      [
        "Ġhand",
        "le"
      ],
      [
        "Ġes",
        "c"
      ],
      [
        "Ġgen",
        "er"
      ],
      [
        "Ġhun",
        "g"
      ],
      [
        "Ġea",
        "ch"
      ],
      [
        "Ġrand",
        "om"
      ],
      [
        "Ġmaj",
        "or"
      ],
      [
        "Ġissu",
        "es"
      ],
      [
        "b",
        "a"
      ],
      [
        "b",
        "ut"
      ],
      [
        "g",
        "y"
      ],
      [
        "i",
        "or"
      ],
      [
        "k",
        "y"
      ],
      [
        "r",
        "up"
      ],
      [
        "w",
        "een"
      ],
      [
        "Ġ",
        "!!"
      ],
      [
        "Ġt",
        "il"
      ],
      [
        "Ġi",
        "r"
      ],
      [
        "Ġi",
        "gn"
      ],
      [
        "Ġw",
        "ikileaks"
      ],
      [
        "in",
        "ess"
      ],
      [
        "Ġl",
        "ink"
      ],
      [
        "Ġc",
        "amp"
      ],
      [
        "Ġc",
        "ubs"
      ],
      [
        "Ġn",
        "um"
      ],
      [
        "Ġo",
        "pp"
      ],
      [
        "Ġin",
        "v"
      ],
      [
        "Ġli",
        "ving"
      ],
      [
        "Ġr",
        "ound"
      ],
      [
        "Ġr",
        "ather"
      ],
      [
        "Ġdo",
        "pe"
      ],
      [
        "Ġch",
        "ang"
      ],
      [
        "Ġch",
        "ance"
      ],
      [
        "ant",
        "s"
      ],
      [
        "Ġsome",
        "body"
      ],
      [
        "us",
        "ed"
      ],
      [
        "Ġv",
        "al"
      ],
      [
        "Ġ1",
        "9"
      ],
      [
        "ra",
        "ct"
      ],
      [
        "Ġun",
        "less"
      ],
      [
        "Ġte",
        "st"
      ],
      [
        "Ġco",
        "ver"
      ],
      [
        "Ġfuck",
        "ed"
      ],
      [
        "ul",
        "t"
      ],
      [
        "Ġstart",
        "ing"
      ],
      [
        "Ġlea",
        "ving"
      ],
      [
        "Ġwr",
        "ite"
      ],
      [
        "Ġbu",
        "ild"
      ],
      [
        "Ġqu",
        "ick"
      ],
      [
        "Ġper",
        "fect"
      ],
      [
        "Ġcont",
        "in"
      ],
      [
        "Ġop",
        "in"
      ],
      [
        "Ġread",
        "ing"
      ],
      [
        "ph",
        "one"
      ],
      [
        "Ġwonder",
        "ful"
      ],
      [
        "Ġpol",
        "it"
      ],
      [
        "Ġment",
        "ion"
      ],
      [
        "Ġsur",
        "pr"
      ],
      [
        "Ġsport",
        "s"
      ],
      [
        "Ġfinish",
        "ed"
      ],
      [
        "Ġhop",
        "ing"
      ],
      [
        "Ġansw",
        "er"
      ],
      [
        "Ġet",
        "c"
      ],
      [
        "Ġtak",
        "es"
      ],
      [
        "Ġbase",
        "ball"
      ],
      [
        "Ġnum",
        "ber"
      ],
      [
        "c",
        "om"
      ],
      [
        "c",
        "ess"
      ],
      [
        "f",
        "s"
      ],
      [
        "h",
        "e"
      ],
      [
        "h",
        "ow"
      ],
      [
        "m",
        "in"
      ],
      [
        "m",
        "it"
      ],
      [
        "n",
        "d"
      ],
      [
        "r",
        "u"
      ],
      [
        "s",
        "p"
      ],
      [
        "t",
        "ime"
      ],
      [
        "w",
        "ard"
      ],
      [
        "y",
        "ou"
      ],
      [
        "y",
        "es"
      ],
      [
        "Ġ",
        "ent"
      ],
      [
        "Ġi",
        "k"
      ],
      [
        "Ġb",
        "ought"
      ],
      [
        "er",
        "o"
      ],
      [
        "Ġh",
        "um"
      ],
      [
        "Ġl",
        "u"
      ],
      [
        "re",
        "nt"
      ],
      [
        "Ġd",
        "ist"
      ],
      [
        "Ġf",
        "ig"
      ],
      [
        "Ġf",
        "ast"
      ],
      [
        "Ġg",
        "ay"
      ],
      [
        "Ġn",
        "or"
      ],
      [
        "Ġyou",
        "ng"
      ],
      [
        "Ġp",
        "ull"
      ],
      [
        "Ġe",
        "ating"
      ],
      [
        "Ġli",
        "ked"
      ],
      [
        "Ġst",
        "ra"
      ],
      [
        "Ġst",
        "ress"
      ],
      [
        "id",
        "ence"
      ],
      [
        "ee",
        "p"
      ],
      [
        "ion",
        "al"
      ],
      [
        "Ġas",
        "leep"
      ],
      [
        "Ġal",
        "one"
      ],
      [
        "un",
        "d"
      ],
      [
        "il",
        "ar"
      ],
      [
        "uck",
        "s"
      ],
      [
        "Ġde",
        "v"
      ],
      [
        "Ġ2",
        "00"
      ],
      [
        "are",
        "ly"
      ],
      [
        "Ġsa",
        "ve"
      ],
      [
        "Ġco",
        "ffee"
      ],
      [
        "Ġwork",
        "ed"
      ],
      [
        "Ġtea",
        "ms"
      ],
      [
        "Ġfe",
        "lt"
      ],
      [
        "Ġad",
        "v"
      ],
      [
        "Ġgr",
        "and"
      ],
      [
        "Ġsch",
        "ed"
      ],
      [
        "Ġdis",
        "c"
      ],
      [
        "Ġla",
        "w"
      ],
      [
        "Ġcomp",
        "an"
      ],
      [
        "Ġcre",
        "d"
      ],
      [
        "Ġproble",
        "ms"
      ],
      [
        "Ġty",
        "pe"
      ],
      [
        "Ġmonth",
        "s"
      ],
      [
        "Ġemail",
        "s"
      ],
      [
        "olog",
        "y"
      ],
      [
        "Ġhom",
        "ie"
      ],
      [
        "Ġvis",
        "it"
      ],
      [
        "Ġfore",
        "ver"
      ],
      [
        "Ġexper",
        "ience"
      ],
      [
        "Ġnorm",
        "al"
      ],
      [
        "Ġprodu",
        "ct"
      ],
      [
        "_",
        "_"
      ],
      [
        "d",
        "e"
      ],
      [
        "f",
        "li"
      ],
      [
        "g",
        "an"
      ],
      [
        "k",
        "k"
      ],
      [
        "k",
        "in"
      ],
      [
        "r",
        "ic"
      ],
      [
        "s",
        "m"
      ],
      [
        "Ġth",
        "er"
      ],
      [
        "in",
        "a"
      ],
      [
        "Ġb",
        "ot"
      ],
      [
        "Ġb",
        "ud"
      ],
      [
        "Ġb",
        "tw"
      ],
      [
        "Ġm",
        "en"
      ],
      [
        "Ġm",
        "atch"
      ],
      [
        "Ġh",
        "uh"
      ],
      [
        "Ġd",
        "ie"
      ],
      [
        "Ġy",
        "up"
      ],
      [
        "Ġc",
        "ap"
      ],
      [
        "Ġc",
        "oup"
      ],
      [
        "Ġf",
        "it"
      ],
      [
        "Ġf",
        "ans"
      ],
      [
        "Ġg",
        "as"
      ],
      [
        "Ġg",
        "ar"
      ],
      [
        "Ġto",
        "wn"
      ],
      [
        "Ġn",
        "et"
      ],
      [
        "an",
        "a"
      ],
      [
        "Ġp",
        "at"
      ],
      [
        "it",
        "al"
      ],
      [
        "Ġli",
        "e"
      ],
      [
        "Ġj",
        "un"
      ],
      [
        "Ġsh",
        "op"
      ],
      [
        "Ġr",
        "ad"
      ],
      [
        "Ġr",
        "ich"
      ],
      [
        "ad",
        "s"
      ],
      [
        "ill",
        "y"
      ],
      [
        "Ġhe",
        "at"
      ],
      [
        "Ġup",
        "d"
      ],
      [
        "Ġtr",
        "uth"
      ],
      [
        "Ġch",
        "ick"
      ],
      [
        "Ġwor",
        "ks"
      ],
      [
        "Ġwor",
        "ds"
      ],
      [
        "pp",
        "er"
      ],
      [
        "Ġmo",
        "ving"
      ],
      [
        "Ġma",
        "c"
      ],
      [
        "ate",
        "ly"
      ],
      [
        "Ġany",
        "way"
      ],
      [
        "Ġ1",
        "4"
      ],
      [
        "Ġse",
        "c"
      ],
      [
        "Ġbet",
        "ween"
      ],
      [
        "Ġ:",
        "/"
      ],
      [
        "Ġsc",
        "en"
      ],
      [
        "Ġlet",
        "s"
      ],
      [
        "oooo",
        "oo"
      ],
      [
        "Ġlea",
        "gue"
      ],
      [
        "ub",
        "lic"
      ],
      [
        "Ġcall",
        "ed"
      ],
      [
        "Ġsw",
        "itch"
      ],
      [
        "Ġsw",
        "eet"
      ],
      [
        "iz",
        "ed"
      ],
      [
        "Ġhahaha",
        "ha"
      ],
      [
        "Ġlisten",
        "ing"
      ],
      [
        "Ġima",
        "gine"
      ],
      [
        "Ġdes",
        "er"
      ],
      [
        "Ġcry",
        "ing"
      ],
      [
        "Ġcur",
        "rent"
      ],
      [
        "Ġind",
        "ians"
      ],
      [
        "Ġbor",
        "ing"
      ],
      [
        "Ġga",
        "ve"
      ],
      [
        "Ġups",
        "et"
      ],
      [
        "Ġcoll",
        "e"
      ],
      [
        "Ġext",
        "ra"
      ],
      [
        "Ġabsolute",
        "ly"
      ],
      [
        "Ġcu",
        "z"
      ],
      [
        "Ġfig",
        "ure"
      ],
      [
        "fli",
        "x"
      ],
      [
        "Ġnet",
        "flix"
      ],
      [
        "a",
        "c"
      ],
      [
        "a",
        "king"
      ],
      [
        "j",
        "ust"
      ],
      [
        "j",
        "ect"
      ],
      [
        "l",
        "ight"
      ],
      [
        "w",
        "ith"
      ],
      [
        "z",
        "a"
      ],
      [
        "Ġ",
        "??"
      ],
      [
        "Ġt",
        "ur"
      ],
      [
        "Ġth",
        "row"
      ],
      [
        "Ġs",
        "on"
      ],
      [
        "Ġw",
        "ind"
      ],
      [
        "Ġb",
        "ag"
      ],
      [
        "Ġm",
        "i"
      ],
      [
        "Ġm",
        "et"
      ],
      [
        "Ġm",
        "ouse"
      ],
      [
        "Ġh",
        "or"
      ],
      [
        "Ġl",
        "ay"
      ],
      [
        "re",
        "ci"
      ],
      [
        "Ġd",
        "ire"
      ],
      [
        "Ġc",
        "ard"
      ],
      [
        "at",
        "o"
      ],
      [
        "Ġf",
        "ol"
      ],
      [
        "ll",
        "ing"
      ],
      [
        "ll",
        "ll"
      ],
      [
        "Ġp",
        "an"
      ],
      [
        "Ġp",
        "ie"
      ],
      [
        "ot",
        "e"
      ],
      [
        "ve",
        "mber"
      ],
      [
        "Ġha",
        "r"
      ],
      [
        "oo",
        "p"
      ],
      [
        "oo",
        "se"
      ],
      [
        "Ġu",
        "m"
      ],
      [
        "Ġe",
        "yes"
      ],
      [
        "Ġof",
        "ten"
      ],
      [
        "Ġst",
        "a"
      ],
      [
        "Ġst",
        "ep"
      ],
      [
        "Ġst",
        "ick"
      ],
      [
        "Ġlo",
        "ck"
      ],
      [
        "Ġr",
        "id"
      ],
      [
        "Ġwe",
        "st"
      ],
      [
        "al",
        "ity"
      ],
      [
        "Ġso",
        "ft"
      ],
      [
        "ent",
        "ly"
      ],
      [
        "Ġch",
        "rist"
      ],
      [
        "Ġno",
        "body"
      ],
      [
        "Ġno",
        "vember"
      ],
      [
        "ear",
        "s"
      ],
      [
        "ie",
        "ld"
      ],
      [
        "Ġevery",
        "body"
      ],
      [
        "Ġpo",
        "s"
      ],
      [
        "Ġpo",
        "or"
      ],
      [
        "Ġplay",
        "ers"
      ],
      [
        "Ġnew",
        "s"
      ],
      [
        "Ġcall",
        "ing"
      ],
      [
        "Ġapp",
        "le"
      ],
      [
        "Ġche",
        "ese"
      ],
      [
        "Ġdi",
        "ed"
      ],
      [
        "Ġrec",
        "ord"
      ],
      [
        "vel",
        "and"
      ],
      [
        "Ġhand",
        "s"
      ],
      [
        "Ġed",
        "m"
      ],
      [
        "Ġsit",
        "u"
      ],
      [
        "Ġinter",
        "view"
      ],
      [
        "Ġleg",
        "it"
      ],
      [
        "Ġsun",
        "day"
      ],
      [
        "Ġdream",
        "s"
      ],
      [
        "Ġwear",
        "ing"
      ],
      [
        "fort",
        "able"
      ],
      [
        "Ġpow",
        "er"
      ],
      [
        "Ġsched",
        "ule"
      ],
      [
        "Ġcolle",
        "ge"
      ],
      [
        "a",
        "le"
      ],
      [
        "c",
        "le"
      ],
      [
        "h",
        "ere"
      ],
      [
        "k",
        "er"
      ],
      [
        "r",
        "r"
      ],
      [
        "t",
        "e"
      ],
      [
        "Ġt",
        "ough"
      ],
      [
        "Ġs",
        "al"
      ],
      [
        "Ġs",
        "qu"
      ],
      [
        "Ġw",
        "ild"
      ],
      [
        "Ġb",
        "a"
      ],
      [
        "Ġl",
        "unch"
      ],
      [
        "re",
        "n"
      ],
      [
        "re",
        "s"
      ],
      [
        "Ġd",
        "in"
      ],
      [
        "Ġd",
        "ark"
      ],
      [
        "Ġto",
        "m"
      ],
      [
        "or",
        "ing"
      ],
      [
        "an",
        "ye"
      ],
      [
        "Ġp",
        "et"
      ],
      [
        "is",
        "ing"
      ],
      [
        "is",
        "us"
      ],
      [
        "oo",
        "f"
      ],
      [
        "le",
        "v"
      ],
      [
        "le",
        "y"
      ],
      [
        "Ġme",
        "mor"
      ],
      [
        "Ġj",
        "ump"
      ],
      [
        "Ġsh",
        "ame"
      ],
      [
        "id",
        "er"
      ],
      [
        "Ġk",
        "anye"
      ],
      [
        "Ġso",
        "cial"
      ],
      [
        "ee",
        "e"
      ],
      [
        "ir",
        "it"
      ],
      [
        "th",
        "at"
      ],
      [
        "Ġsu",
        "b"
      ],
      [
        "Ġgot",
        "ch"
      ],
      [
        "Ġor",
        "der"
      ],
      [
        "Ġde",
        "l"
      ],
      [
        "ess",
        "ed"
      ],
      [
        "Ġ1",
        "2"
      ],
      [
        "Ġcon",
        "st"
      ],
      [
        "ff",
        "s"
      ],
      [
        "Ġse",
        "lf"
      ],
      [
        "Ġsa",
        "fe"
      ],
      [
        "Ġbl",
        "ood"
      ],
      [
        "Ġplay",
        "er"
      ],
      [
        "Ġus",
        "ing"
      ],
      [
        "Ġar",
        "g"
      ],
      [
        "oooo",
        "oooo"
      ],
      [
        "Ġke",
        "pt"
      ],
      [
        "Ġaw",
        "w"
      ],
      [
        "Ġdr",
        "unk"
      ],
      [
        "Ġen",
        "g"
      ],
      [
        "Ġfe",
        "ll"
      ],
      [
        "Ġph",
        "ot"
      ],
      [
        "ire",
        "s"
      ],
      [
        "Ġwin",
        "s"
      ],
      [
        "Ġ4",
        "0"
      ],
      [
        "Ġapp",
        "reci"
      ],
      [
        "Ġem",
        "ot"
      ],
      [
        "Ġac",
        "cept"
      ],
      [
        "Ġmom",
        "ent"
      ],
      [
        "Ġbab",
        "e"
      ],
      [
        "vel",
        "op"
      ],
      [
        "Ġcompl",
        "ete"
      ],
      [
        "Ġstud",
        "y"
      ],
      [
        "Ġpol",
        "ic"
      ],
      [
        "Ġsk",
        "in"
      ],
      [
        "Ġinter",
        "n"
      ],
      [
        "Ġsim",
        "ilar"
      ],
      [
        "Ġwy",
        "d"
      ],
      [
        "Ġcomm",
        "un"
      ],
      [
        "Ġfil",
        "m"
      ],
      [
        "Ġcle",
        "veland"
      ],
      [
        "this",
        "isus"
      ],
      [
        "Ġvide",
        "o"
      ],
      [
        "Ġfoot",
        "ball"
      ],
      [
        "Ġannoy",
        "ing"
      ],
      [
        "Ġeff",
        "ect"
      ],
      [
        "Ġesc",
        "ape"
      ],
      [
        "Ġhung",
        "ry"
      ],
      [
        "Ġstra",
        "ight"
      ],
      [
        "Ġcoup",
        "le"
      ],
      [
        "Ġappreci",
        "ate"
      ],
      [
        "1",
        "0"
      ],
      [
        "c",
        "ast"
      ],
      [
        "g",
        "es"
      ],
      [
        "l",
        "ish"
      ],
      [
        "l",
        "come"
      ],
      [
        "m",
        "i"
      ],
      [
        "m",
        "end"
      ],
      [
        "n",
        "es"
      ],
      [
        "r",
        "or"
      ],
      [
        "s",
        "n"
      ],
      [
        "u",
        "gg"
      ],
      [
        "v",
        "ies"
      ],
      [
        "v",
        "ious"
      ],
      [
        "y",
        "m"
      ],
      [
        "Ġ",
        "0"
      ],
      [
        "Ġ",
        "^"
      ],
      [
        "Ġ",
        "ĠĊ"
      ],
      [
        "Ġa",
        "h"
      ],
      [
        "Ġs",
        "at"
      ],
      [
        "Ġs",
        "ent"
      ],
      [
        "Ġw",
        "it"
      ],
      [
        "Ġw",
        "ide"
      ],
      [
        "Ġw",
        "rest"
      ],
      [
        "Ġb",
        "arely"
      ],
      [
        "Ġm",
        "c"
      ],
      [
        "Ġl",
        "ame"
      ],
      [
        "Ġl",
        "ead"
      ],
      [
        "Ġl",
        "ying"
      ],
      [
        "re",
        "t"
      ],
      [
        "Ġd",
        "at"
      ],
      [
        "Ġd",
        "en"
      ],
      [
        "Ġy",
        "ep"
      ],
      [
        "Ġc",
        "ent"
      ],
      [
        "Ġf",
        "at"
      ],
      [
        "Ġf",
        "ool"
      ],
      [
        "Ġg",
        "e"
      ],
      [
        "or",
        "n"
      ],
      [
        "or",
        "ies"
      ],
      [
        "Ġn",
        "on"
      ],
      [
        "Ġyou",
        "re"
      ],
      [
        "Ġp",
        "al"
      ],
      [
        "Ġp",
        "iss"
      ],
      [
        "Ġp",
        "ict"
      ],
      [
        "is",
        "ion"
      ],
      [
        "oo",
        "s"
      ],
      [
        "Ġu",
        "ber"
      ],
      [
        "Ġsh",
        "ort"
      ],
      [
        "id",
        "s"
      ],
      [
        "Ġlo",
        "ss"
      ],
      [
        "Ġre",
        "f"
      ],
      [
        "Ġwe",
        "lcome"
      ],
      [
        "Ġdo",
        "or"
      ],
      [
        "Ġtr",
        "o"
      ],
      [
        "Ġtr",
        "ash"
      ],
      [
        "Ġknow",
        "ing"
      ],
      [
        "Ġsu",
        "mm"
      ],
      [
        "Ġmo",
        "vies"
      ],
      [
        "end",
        "er"
      ],
      [
        "ep",
        "y"
      ],
      [
        "Ġthink",
        "s"
      ],
      [
        "Ġde",
        "ck"
      ],
      [
        "Ġde",
        "velop"
      ],
      [
        "ri",
        "pt"
      ],
      [
        "Ġcon",
        "cer"
      ],
      [
        "Ġim",
        "ma"
      ],
      [
        "Ġcl",
        "os"
      ],
      [
        "ation",
        "ship"
      ],
      [
        "Ġbr",
        "other"
      ],
      [
        "Ġway",
        "s"
      ],
      [
        "Ġfa",
        "ir"
      ],
      [
        "Ġfa",
        "il"
      ],
      [
        "ist",
        "s"
      ],
      [
        "Ġhaha",
        "h"
      ],
      [
        "Ġby",
        "e"
      ],
      [
        "Ġsm",
        "oke"
      ],
      [
        "Ġint",
        "ent"
      ],
      [
        "Ġke",
        "y"
      ],
      [
        "Ġwon",
        "t"
      ],
      [
        "ub",
        "b"
      ],
      [
        "ment",
        "s"
      ],
      [
        "Ġstop",
        "ped"
      ],
      [
        "Ġapp",
        "ly"
      ],
      [
        "Ġwr",
        "it"
      ],
      [
        "Ġqu",
        "it"
      ],
      [
        "Ġhell",
        "a"
      ],
      [
        "Ġnigg",
        "as"
      ],
      [
        "ww",
        "ww"
      ],
      [
        "Ġ9",
        "0"
      ],
      [
        "Ġrel",
        "ationship"
      ],
      [
        "Ġacc",
        "ount"
      ],
      [
        "Ġev",
        "ent"
      ],
      [
        "Ġwom",
        "an"
      ],
      [
        "Ġcur",
        "ious"
      ],
      [
        "ssss",
        "ssss"
      ],
      [
        "Ġbus",
        "iness"
      ],
      [
        "Ġter",
        "ri"
      ],
      [
        "Ġscre",
        "w"
      ],
      [
        "Ġexpl",
        "ain"
      ],
      [
        "Ġvo",
        "ice"
      ],
      [
        "Ġrac",
        "ist"
      ],
      [
        "Ġsurpr",
        "ised"
      ],
      [
        "Ġrad",
        "io"
      ],
      [
        "Ġdeser",
        "ve"
      ],
      [
        "Ġfol",
        "ks"
      ],
      [
        "b",
        "in"
      ],
      [
        "b",
        "and"
      ],
      [
        "g",
        "in"
      ],
      [
        "g",
        "as"
      ],
      [
        "w",
        "eet"
      ],
      [
        "w",
        "ise"
      ],
      [
        "x",
        "x"
      ],
      [
        "z",
        "z"
      ],
      [
        "Ġ",
        "="
      ],
      [
        "Ġt",
        "ast"
      ],
      [
        "Ġw",
        "ast"
      ],
      [
        "Ġb",
        "ra"
      ],
      [
        "Ġb",
        "urn"
      ],
      [
        "Ġm",
        "f"
      ],
      [
        "Ġm",
        "is"
      ],
      [
        "Ġm",
        "il"
      ],
      [
        "Ġh",
        "m"
      ],
      [
        "Ġl",
        "au"
      ],
      [
        "Ġd",
        "un"
      ],
      [
        "Ġy",
        "ay"
      ],
      [
        "Ġc",
        "up"
      ],
      [
        "Ġc",
        "ards"
      ],
      [
        "Ġc",
        "ase"
      ],
      [
        "at",
        "ure"
      ],
      [
        "at",
        "tle"
      ],
      [
        "Ġf",
        "ro"
      ],
      [
        "Ġn",
        "y"
      ],
      [
        "Ġp",
        "iz"
      ],
      [
        "Ġp",
        "ublic"
      ],
      [
        "om",
        "mend"
      ],
      [
        "ea",
        "p"
      ],
      [
        "Ġe",
        "ye"
      ],
      [
        "ch",
        "at"
      ],
      [
        "id",
        "es"
      ],
      [
        "Ġr",
        "ide"
      ],
      [
        "Ġk",
        "a"
      ],
      [
        "Ġbut",
        "t"
      ],
      [
        "ic",
        "ed"
      ],
      [
        "Ġtr",
        "ade"
      ],
      [
        "Ġas",
        "king"
      ],
      [
        "Ġch",
        "a"
      ],
      [
        "ro",
        "ve"
      ],
      [
        "ter",
        "s"
      ],
      [
        "Ġall",
        "ow"
      ],
      [
        "Ġpl",
        "at"
      ],
      [
        "end",
        "ing"
      ],
      [
        "Ġsome",
        "where"
      ],
      [
        "um",
        "ent"
      ],
      [
        "Ġsee",
        "m"
      ],
      [
        "Ġ1",
        "5"
      ],
      [
        "Ġco",
        "l"
      ],
      [
        "Ġbl",
        "ue"
      ],
      [
        "Ġpe",
        "pper"
      ],
      [
        "Ġpro",
        "f"
      ],
      [
        "Ġplay",
        "s"
      ],
      [
        "ation",
        "al"
      ],
      [
        "ist",
        "er"
      ],
      [
        "Ġbec",
        "ome"
      ],
      [
        "Ġsleep",
        "y"
      ],
      [
        "Ġsm",
        "all"
      ],
      [
        "os",
        "p"
      ],
      [
        "Ġstart",
        "s"
      ],
      [
        "Ġna",
        "il"
      ],
      [
        "Ġpr",
        "ice"
      ],
      [
        "Ġaw",
        "ful"
      ],
      [
        "Ġoth",
        "ers"
      ],
      [
        "Ġtell",
        "ing"
      ],
      [
        "Ġcr",
        "it"
      ],
      [
        "Ġstay",
        "ing"
      ],
      [
        "Ġrec",
        "ommend"
      ],
      [
        "Ġsupp",
        "osed"
      ],
      [
        "Ġpay",
        "ing"
      ],
      [
        "Ġdri",
        "ver"
      ],
      [
        "Ġrel",
        "ig"
      ],
      [
        "Ġexc",
        "use"
      ],
      [
        "Ġrun",
        "ning"
      ],
      [
        "Ġpa",
        "id"
      ],
      [
        "Ġsit",
        "ting"
      ],
      [
        "Ġfact",
        "s"
      ],
      [
        "Ġcons",
        "id"
      ],
      [
        "Ġwy",
        "a"
      ],
      [
        "Ġgi",
        "ving"
      ],
      [
        "Ġtick",
        "et"
      ],
      [
        "Ġluck",
        "y"
      ],
      [
        "wor",
        "ld"
      ],
      [
        "Ġ;",
        ")"
      ],
      [
        "Ġscre",
        "en"
      ],
      [
        "Ġdou",
        "ble"
      ],
      [
        "Ġlear",
        "n"
      ],
      [
        "Ġap",
        "art"
      ],
      [
        "Ġwed",
        "ding"
      ],
      [
        "Ġprom",
        "ise"
      ],
      [
        "Ġpres",
        "ident"
      ],
      [
        "Ġcontro",
        "l"
      ],
      [
        "Ġce",
        "le"
      ],
      [
        "Ġposs",
        "ible"
      ],
      [
        "Ġchang",
        "ed"
      ],
      [
        "Ġnor",
        "th"
      ],
      [
        "Ġsitu",
        "ation"
      ],
      [
        "Ġpict",
        "ure"
      ],
      [
        "Ġpiz",
        "za"
      ],
      [
        "!",
        "?"
      ],
      [
        "*",
        "*"
      ],
      [
        "1",
        "5"
      ],
      [
        "1",
        "6"
      ],
      [
        "2",
        "0"
      ],
      [
        "?",
        "\""
      ],
      [
        "b",
        "b"
      ],
      [
        "b",
        "it"
      ],
      [
        "b",
        "ra"
      ],
      [
        "b",
        "ook"
      ],
      [
        "e",
        "x"
      ],
      [
        "e",
        "ll"
      ],
      [
        "f",
        "l"
      ],
      [
        "f",
        "it"
      ],
      [
        "g",
        "ing"
      ],
      [
        "g",
        "ly"
      ],
      [
        "g",
        "ic"
      ],
      [
        "i",
        "ara"
      ],
      [
        "j",
        "a"
      ],
      [
        "k",
        "a"
      ],
      [
        "m",
        "on"
      ],
      [
        "n",
        "ow"
      ],
      [
        "r",
        "s"
      ],
      [
        "r",
        "is"
      ],
      [
        "v",
        "in"
      ],
      [
        "v",
        "ous"
      ],
      [
        "Ġt",
        "l"
      ],
      [
        "Ġa",
        "ge"
      ],
      [
        "Ġa",
        "ff"
      ],
      [
        "Ġa",
        "int"
      ],
      [
        "Ġs",
        "ort"
      ],
      [
        "Ġs",
        "outh"
      ],
      [
        "Ġw",
        "o"
      ],
      [
        "Ġw",
        "is"
      ],
      [
        "Ġb",
        "ored"
      ],
      [
        "Ġm",
        "ot"
      ],
      [
        "Ġm",
        "outh"
      ],
      [
        "Ġh",
        "ist"
      ],
      [
        "Ġh",
        "osp"
      ],
      [
        "Ġd",
        "v"
      ],
      [
        "Ġc",
        "a"
      ],
      [
        "Ġc",
        "ust"
      ],
      [
        "Ġc",
        "ous"
      ],
      [
        "Ġc",
        "ross"
      ],
      [
        "at",
        "t"
      ],
      [
        "Ġf",
        "b"
      ],
      [
        "Ġf",
        "f"
      ],
      [
        "Ġf",
        "ur"
      ],
      [
        "Ġf",
        "our"
      ],
      [
        "Ġf",
        "ault"
      ],
      [
        "Ġg",
        "un"
      ],
      [
        "Ġn",
        "atur"
      ],
      [
        "an",
        "ish"
      ],
      [
        "Ġp",
        "u"
      ],
      [
        "Ġp",
        "ic"
      ],
      [
        "Ġp",
        "ract"
      ],
      [
        "st",
        "on"
      ],
      [
        "Ġha",
        "ll"
      ],
      [
        "Ġu",
        "gly"
      ],
      [
        "ut",
        "er"
      ],
      [
        "Ġli",
        "ves"
      ],
      [
        "Ġj",
        "an"
      ],
      [
        "Ġst",
        "at"
      ],
      [
        "Ġsh",
        "ut"
      ],
      [
        "Ġlo",
        "cal"
      ],
      [
        "se",
        "l"
      ],
      [
        "se",
        "ll"
      ],
      [
        "Ġre",
        "d"
      ],
      [
        "Ġr",
        "ain"
      ],
      [
        "!!",
        "!!!"
      ],
      [
        "ill",
        "ed"
      ],
      [
        "ct",
        "o"
      ],
      [
        "Ġkn",
        "o"
      ],
      [
        "Ġfr",
        "ont"
      ],
      [
        "Ġyour",
        "s"
      ],
      [
        "Ġwor",
        "ry"
      ],
      [
        "Ġal",
        "ong"
      ],
      [
        "Ġsu",
        "g"
      ],
      [
        "Ġsu",
        "m"
      ],
      [
        "Ġout",
        "ta"
      ],
      [
        "ack",
        "ing"
      ],
      [
        "Ġv",
        "s"
      ],
      [
        "Ġex",
        "cept"
      ],
      [
        "??",
        "??"
      ],
      [
        "Ġsp",
        "irit"
      ],
      [
        "Ġte",
        "ch"
      ],
      [
        "Ġfuck",
        "in"
      ],
      [
        "Ġcl",
        "oth"
      ],
      [
        "Ġfeel",
        "s"
      ],
      [
        "ul",
        "ar"
      ],
      [
        "Ġ:",
        "-"
      ],
      [
        "Ġbr",
        "ain"
      ],
      [
        "Ġpre",
        "ss"
      ],
      [
        "Ġsomet",
        "ime"
      ],
      [
        "Ġact",
        "ing"
      ],
      [
        "Ġhim",
        "self"
      ],
      [
        "Ġna",
        "p"
      ],
      [
        "Ġpr",
        "op"
      ],
      [
        "Ġlook",
        "ed"
      ],
      [
        "Ġjo",
        "in"
      ],
      [
        "Ġother",
        "wise"
      ],
      [
        "Ġapp",
        "arent"
      ],
      [
        "Ġwr",
        "iting"
      ],
      [
        "Ġem",
        "o"
      ],
      [
        "oth",
        "ers"
      ],
      [
        "Ġdis",
        "ney"
      ],
      [
        "wh",
        "i"
      ],
      [
        "Ġfl",
        "o"
      ],
      [
        "Ġbas",
        "ed"
      ],
      [
        "Ġsupp",
        "or"
      ],
      [
        "Ġwonder",
        "ing"
      ],
      [
        "Ġvot",
        "ed"
      ],
      [
        "Ġfre",
        "sh"
      ],
      [
        "ens",
        "ive"
      ],
      [
        "Ġsong",
        "s"
      ],
      [
        "Ġret",
        "weet"
      ],
      [
        "Ġbus",
        "y"
      ],
      [
        "Ġav",
        "i"
      ],
      [
        "Ġve",
        "gas"
      ],
      [
        "Ġpray",
        "ers"
      ],
      [
        "Ġparent",
        "s"
      ],
      [
        "Ġameric",
        "a"
      ],
      [
        "Ġcook",
        "ed"
      ],
      [
        "Ġjud",
        "ge"
      ],
      [
        "Ġcontin",
        "ue"
      ],
      [
        "Ġther",
        "es"
      ],
      [
        "Ġchick",
        "en"
      ],
      [
        "Ġdin",
        "ner"
      ],
      [
        "Ġka",
        "whi"
      ],
      [
        "Ġhosp",
        "ital"
      ],
      [
        "Ġapparent",
        "ly"
      ],
      [
        "5",
        "0"
      ],
      [
        "b",
        "t"
      ],
      [
        "b",
        "ar"
      ],
      [
        "c",
        "r"
      ],
      [
        "c",
        "an"
      ],
      [
        "d",
        "en"
      ],
      [
        "f",
        "u"
      ],
      [
        "g",
        "i"
      ],
      [
        "g",
        "le"
      ],
      [
        "i",
        "os"
      ],
      [
        "m",
        "as"
      ],
      [
        "p",
        "ro"
      ],
      [
        "s",
        "on"
      ],
      [
        "t",
        "u"
      ],
      [
        "t",
        "in"
      ],
      [
        "v",
        "y"
      ],
      [
        "v",
        "ate"
      ],
      [
        "w",
        "rit"
      ],
      [
        "Ġt",
        "ip"
      ],
      [
        "Ġa",
        "hhhh"
      ],
      [
        "Ġth",
        "re"
      ],
      [
        "Ġs",
        "oooo"
      ],
      [
        "Ġw",
        "er"
      ],
      [
        "Ġb",
        "b"
      ],
      [
        "Ġb",
        "ill"
      ],
      [
        "Ġb",
        "um"
      ],
      [
        "Ġm",
        "er"
      ],
      [
        "Ġm",
        "as"
      ],
      [
        "Ġm",
        "al"
      ],
      [
        "Ġm",
        "ur"
      ],
      [
        "Ġm",
        "ich"
      ],
      [
        "Ġh",
        "ea"
      ],
      [
        "Ġl",
        "ou"
      ],
      [
        "re",
        "ct"
      ],
      [
        "Ġy",
        "all"
      ],
      [
        "Ġy",
        "ess"
      ],
      [
        "Ġc",
        "oun"
      ],
      [
        "Ġc",
        "iara"
      ],
      [
        "Ġf",
        "ire"
      ],
      [
        "ll",
        "a"
      ],
      [
        "Ġn",
        "one"
      ],
      [
        "Ġn",
        "ba"
      ],
      [
        "Ġp",
        "en"
      ],
      [
        "Ġp",
        "ee"
      ],
      [
        "Ġp",
        "ack"
      ],
      [
        "Ġp",
        "ort"
      ],
      [
        "Ġp",
        "ump"
      ],
      [
        "Ġp",
        "ants"
      ],
      [
        "it",
        "ies"
      ],
      [
        "es",
        "us"
      ],
      [
        "om",
        "er"
      ],
      [
        "Ġha",
        "vent"
      ],
      [
        "Ġu",
        "h"
      ],
      [
        "Ġe",
        "h"
      ],
      [
        "Ġe",
        "st"
      ],
      [
        "Ġe",
        "qu"
      ],
      [
        "ut",
        "s"
      ],
      [
        "am",
        "ed"
      ],
      [
        "Ġj",
        "am"
      ],
      [
        "id",
        "ed"
      ],
      [
        "Ġfor",
        "ward"
      ],
      [
        "Ġr",
        "ing"
      ],
      [
        "Ġr",
        "od"
      ],
      [
        "Ġdo",
        "ll"
      ],
      [
        "Ġdo",
        "gs"
      ],
      [
        "Ġcan",
        "not"
      ],
      [
        "ent",
        "ion"
      ],
      [
        "Ġtr",
        "u"
      ],
      [
        "Ġch",
        "em"
      ],
      [
        "Ġno",
        "se"
      ],
      [
        "end",
        "s"
      ],
      [
        "end",
        "ed"
      ],
      [
        "Ġde",
        "li"
      ],
      [
        "Ġcon",
        "n"
      ],
      [
        "Ġcon",
        "gr"
      ],
      [
        "Ġsp",
        "r"
      ],
      [
        "Ġsp",
        "anish"
      ],
      [
        "Ġshit",
        "ty"
      ],
      [
        "our",
        "n"
      ],
      [
        "ud",
        "es"
      ],
      [
        "Ġtw",
        "ice"
      ],
      [
        "Ġbl",
        "ah"
      ],
      [
        "Ġam",
        "ount"
      ],
      [
        "Ġlma",
        "oo"
      ],
      [
        "Ġbr",
        "own"
      ],
      [
        "Ġsc",
        "ript"
      ],
      [
        "Ġpre",
        "gn"
      ],
      [
        "Ġro",
        "ll"
      ],
      [
        "ort",
        "ant"
      ],
      [
        "Ġpr",
        "oud"
      ],
      [
        "Ġjo",
        "ke"
      ],
      [
        "Ġgr",
        "oup"
      ],
      [
        "sh",
        "it"
      ],
      [
        "Ġ5",
        "0"
      ],
      [
        "ag",
        "ed"
      ],
      [
        "Ġle",
        "vel"
      ],
      [
        "Ġput",
        "ting"
      ],
      [
        "Ġver",
        "s"
      ],
      [
        "Ġdis",
        "app"
      ],
      [
        "Ġqu",
        "ite"
      ],
      [
        "li",
        "er"
      ],
      [
        "li",
        "fe"
      ],
      [
        "Ġthought",
        "s"
      ],
      [
        "Ġmom",
        "my"
      ],
      [
        "Ġbre",
        "ath"
      ],
      [
        "Ġwar",
        "m"
      ],
      [
        "Ġbas",
        "ically"
      ],
      [
        "Ġbo",
        "i"
      ],
      [
        "Ġcomp",
        "et"
      ],
      [
        "Ġcre",
        "epy"
      ],
      [
        "Ġdec",
        "ent"
      ],
      [
        "Ġz",
        "ero"
      ],
      [
        "Ġsn",
        "ow"
      ],
      [
        "Ġvot",
        "ing"
      ],
      [
        "ii",
        "ii"
      ],
      [
        "gr",
        "am"
      ],
      [
        "Ġda",
        "ily"
      ],
      [
        "Ġimp",
        "ress"
      ],
      [
        "Ġreg",
        "ard"
      ],
      [
        "Ġsim",
        "p"
      ],
      [
        "Ġdra",
        "w"
      ],
      [
        "uss",
        "y"
      ],
      [
        "Ġatt",
        "ack"
      ],
      [
        "Ġav",
        "ail"
      ],
      [
        "Ġ201",
        "6"
      ],
      [
        "Ġsnap",
        "chat"
      ],
      [
        "Ġob",
        "vious"
      ],
      [
        "ser",
        "ies"
      ],
      [
        "Ġner",
        "vous"
      ],
      [
        "Ġdire",
        "ct"
      ],
      [
        "lev",
        "ant"
      ],
      [
        "Ġeng",
        "lish"
      ],
      [
        "Ġpolic",
        "y"
      ],
      [
        "Ġintern",
        "et"
      ],
      [
        "nes",
        "day"
      ],
      [
        "Ġlau",
        "gh"
      ],
      [
        "world",
        "series"
      ],
      [
        "Ġhist",
        "ory"
      ],
      [
        "Ġcloth",
        "es"
      ],
      [
        "Ġwer",
        "en"
      ],
      [
        "Ġpump",
        "kin"
      ],
      [
        "Ġcongr",
        "ats"
      ],
      [
        "a",
        "ign"
      ],
      [
        "b",
        "u"
      ],
      [
        "b",
        "or"
      ],
      [
        "b",
        "ow"
      ],
      [
        "c",
        "are"
      ],
      [
        "d",
        "a"
      ],
      [
        "d",
        "on"
      ],
      [
        "e",
        "y"
      ],
      [
        "g",
        "ed"
      ],
      [
        "h",
        "n"
      ],
      [
        "h",
        "ind"
      ],
      [
        "i",
        "ot"
      ],
      [
        "i",
        "ol"
      ],
      [
        "k",
        "en"
      ],
      [
        "n",
        "ight"
      ],
      [
        "t",
        "i"
      ],
      [
        "t",
        "o"
      ],
      [
        "u",
        "ary"
      ],
      [
        "Ġt",
        "it"
      ],
      [
        "Ġt",
        "ar"
      ],
      [
        "Ġt",
        "ired"
      ],
      [
        "Ġa",
        "ut"
      ],
      [
        "Ġa",
        "ch"
      ],
      [
        "Ġs",
        "en"
      ],
      [
        "Ġs",
        "is"
      ],
      [
        "Ġw",
        "ake"
      ],
      [
        "Ġw",
        "ise"
      ],
      [
        "Ġw",
        "eak"
      ],
      [
        "in",
        "al"
      ],
      [
        "Ġb",
        "es"
      ],
      [
        "Ġb",
        "ull"
      ],
      [
        "Ġb",
        "ody"
      ],
      [
        "Ġb",
        "ible"
      ],
      [
        "Ġb",
        "io"
      ],
      [
        "Ġb",
        "unch"
      ],
      [
        "Ġm",
        "ut"
      ],
      [
        "Ġm",
        "ath"
      ],
      [
        "Ġh",
        "y"
      ],
      [
        "Ġh",
        "es"
      ],
      [
        "Ġh",
        "us"
      ],
      [
        "Ġh",
        "ous"
      ],
      [
        "Ġh",
        "ol"
      ],
      [
        "Ġd",
        "an"
      ],
      [
        "Ġd",
        "ame"
      ],
      [
        "Ġd",
        "ig"
      ],
      [
        "Ġd",
        "ue"
      ],
      [
        "Ġd",
        "ang"
      ],
      [
        "Ġc",
        "ats"
      ],
      [
        "Ġc",
        "av"
      ],
      [
        "Ġf",
        "al"
      ],
      [
        "Ġf",
        "ield"
      ],
      [
        "or",
        "k"
      ],
      [
        "Ġn",
        "ick"
      ],
      [
        "en",
        "cy"
      ],
      [
        "Ġp",
        "ot"
      ],
      [
        "Ġp",
        "ics"
      ],
      [
        "Ġp",
        "ussy"
      ],
      [
        "st",
        "s"
      ],
      [
        "it",
        "ive"
      ],
      [
        "Ġo",
        "bs"
      ],
      [
        "Ġit",
        "em"
      ],
      [
        "ot",
        "t"
      ],
      [
        "ot",
        "ect"
      ],
      [
        "om",
        "s"
      ],
      [
        "Ġbe",
        "l"
      ],
      [
        "Ġbe",
        "y"
      ],
      [
        "Ġon",
        "line"
      ],
      [
        "Ġli",
        "ber"
      ],
      [
        "Ġj",
        "k"
      ],
      [
        "Ġj",
        "u"
      ],
      [
        "Ġj",
        "esus"
      ],
      [
        "ar",
        "s"
      ],
      [
        "Ġst",
        "e"
      ],
      [
        "Ġsh",
        "ift"
      ],
      [
        "Ġlo",
        "ved"
      ],
      [
        "Ġr",
        "om"
      ],
      [
        "Ġr",
        "is"
      ],
      [
        "Ġr",
        "am"
      ],
      [
        "Ġr",
        "ough"
      ],
      [
        "ver",
        "n"
      ],
      [
        "ver",
        "se"
      ],
      [
        "Ġk",
        "en"
      ],
      [
        "Ġne",
        "ither"
      ],
      [
        "Ġgo",
        "vern"
      ],
      [
        "op",
        "s"
      ],
      [
        "th",
        "ough"
      ],
      [
        "Ġat",
        "e"
      ],
      [
        "Ġas",
        "f"
      ],
      [
        "Ġare",
        "a"
      ],
      [
        "ro",
        "ll"
      ],
      [
        "ear",
        "ch"
      ],
      [
        "pp",
        "y"
      ],
      [
        "Ġsu",
        "dd"
      ],
      [
        "Ġmo",
        "d"
      ],
      [
        "un",
        "der"
      ],
      [
        "us",
        "ing"
      ],
      [
        "Ġ2",
        "1"
      ],
      [
        "Ġ2",
        "5"
      ],
      [
        "ain",
        "ed"
      ],
      [
        "ri",
        "end"
      ],
      [
        "Ġcon",
        "vers"
      ],
      [
        "Ġshit",
        "s"
      ],
      [
        "Ġse",
        "at"
      ],
      [
        "Ġse",
        "ll"
      ],
      [
        "Ġun",
        "f"
      ],
      [
        "Ġte",
        "x"
      ],
      [
        "Ġoff",
        "ice"
      ],
      [
        "Ġbl",
        "ame"
      ],
      [
        "Ġpro",
        "gram"
      ],
      [
        "Ġlma",
        "oooo"
      ],
      [
        "Ġlma",
        "ooo"
      ],
      [
        "Ġplay",
        "o"
      ],
      [
        "pl",
        "ay"
      ],
      [
        "pl",
        "oy"
      ],
      [
        "Ġsc",
        "ary"
      ],
      [
        "Ġsc",
        "ream"
      ],
      [
        "Ġmiss",
        "ion"
      ],
      [
        "Ġar",
        "m"
      ],
      [
        "os",
        "h"
      ],
      [
        "Ġid",
        "c"
      ],
      [
        "Ġdidn",
        "t"
      ],
      [
        "Ġnight",
        "s"
      ],
      [
        "Ġro",
        "ad"
      ],
      [
        "Ġjo",
        "hn"
      ],
      [
        "Ġgr",
        "ow"
      ],
      [
        "Ġgr",
        "ound"
      ],
      [
        "aa",
        "a"
      ],
      [
        "00",
        "0"
      ],
      [
        "Ġem",
        "ma"
      ],
      [
        "Ġreal",
        "ize"
      ],
      [
        "Ġthr",
        "u"
      ],
      [
        "Ġkid",
        "ding"
      ],
      [
        "Ġend",
        "ing"
      ],
      [
        "Ġend",
        "ed"
      ],
      [
        "Ġhell",
        "o"
      ],
      [
        "Ġ7",
        "0"
      ],
      [
        "Ġrec",
        "ently"
      ],
      [
        "Ġmar",
        "ried"
      ],
      [
        "Ġbo",
        "x"
      ],
      [
        "Ġbo",
        "at"
      ],
      [
        "Ġla",
        "zy"
      ],
      [
        "Ġear",
        "lier"
      ],
      [
        "Ġgl",
        "ass"
      ],
      [
        "Ġwal",
        "king"
      ],
      [
        "Ġconf",
        "used"
      ],
      [
        "Ġconf",
        "idence"
      ],
      [
        "Ġcheck",
        "ed"
      ],
      [
        "Ġsn",
        "eak"
      ],
      [
        "Ġhur",
        "ts"
      ],
      [
        "Ġty",
        "p"
      ],
      [
        "Ġboo",
        "ks"
      ],
      [
        "Ġfre",
        "aking"
      ],
      [
        "Ġdrop",
        "ped"
      ],
      [
        "ger",
        "y"
      ],
      [
        "Ġimp",
        "ortant"
      ],
      [
        "Ġstr",
        "ugg"
[...]
